{
  "version": "1.0",
  "truncation": null,
  "padding": null,
  "added_tokens": [
    {
      "id": 0,
      "content": "[UNK]",
      "single_word": false,
      "lstrip": false,
      "rstrip": false,
      "normalized": false,
      "special": true
    },
    {
      "id": 1,
      "content": "[CLS]",
      "single_word": false,
      "lstrip": false,
      "rstrip": false,
      "normalized": false,
      "special": true
    },
    {
      "id": 2,
      "content": "[SEP]",
      "single_word": false,
      "lstrip": false,
      "rstrip": false,
      "normalized": false,
      "special": true
    },
    {
      "id": 3,
      "content": "[PAD]",
      "single_word": false,
      "lstrip": false,
      "rstrip": false,
      "normalized": false,
      "special": true
    },
    {
      "id": 4,
      "content": "[MASK]",
      "single_word": false,
      "lstrip": false,
      "rstrip": false,
      "normalized": false,
      "special": true
    }
  ],
  "normalizer": null,
  "pre_tokenizer": {
    "type": "Whitespace"
  },
  "post_processor": null,
  "decoder": null,
  "model": {
    "type": "BPE",
    "dropout": null,
    "unk_token": "[UNK]",
    "continuing_subword_prefix": null,
    "end_of_word_suffix": null,
    "fuse_unk": false,
    "byte_fallback": false,
    "ignore_merges": false,
    "vocab": {
      "[UNK]": 0,
      "[CLS]": 1,
      "[SEP]": 2,
      "[PAD]": 3,
      "[MASK]": 4,
      "!": 5,
      "\"": 6,
      "#": 7,
      "$": 8,
      "%": 9,
      "&": 10,
      "'": 11,
      "(": 12,
      ")": 13,
      "*": 14,
      "+": 15,
      ",": 16,
      "-": 17,
      ".": 18,
      "/": 19,
      "0": 20,
      "1": 21,
      "2": 22,
      "3": 23,
      "4": 24,
      "5": 25,
      "6": 26,
      "7": 27,
      "8": 28,
      "9": 29,
      ":": 30,
      ";": 31,
      "<": 32,
      "=": 33,
      ">": 34,
      "?": 35,
      "@": 36,
      "A": 37,
      "B": 38,
      "C": 39,
      "D": 40,
      "E": 41,
      "F": 42,
      "G": 43,
      "H": 44,
      "I": 45,
      "J": 46,
      "K": 47,
      "L": 48,
      "M": 49,
      "N": 50,
      "O": 51,
      "P": 52,
      "Q": 53,
      "R": 54,
      "S": 55,
      "T": 56,
      "U": 57,
      "V": 58,
      "W": 59,
      "X": 60,
      "Y": 61,
      "Z": 62,
      "[": 63,
      "\\": 64,
      "]": 65,
      "^": 66,
      "_": 67,
      "`": 68,
      "a": 69,
      "b": 70,
      "c": 71,
      "d": 72,
      "e": 73,
      "f": 74,
      "g": 75,
      "h": 76,
      "i": 77,
      "j": 78,
      "k": 79,
      "l": 80,
      "m": 81,
      "n": 82,
      "o": 83,
      "p": 84,
      "q": 85,
      "r": 86,
      "s": 87,
      "t": 88,
      "u": 89,
      "v": 90,
      "w": 91,
      "x": 92,
      "y": 93,
      "z": 94,
      "{": 95,
      "|": 96,
      "}": 97,
      "~": 98,
      "ß": 99,
      "ä": 100,
      "’": 101,
      "●": 102,
      "✅": 103,
      "❌": 104,
      "se": 105,
      "in": 106,
      "on": 107,
      "st": 108,
      "at": 109,
      "re": 110,
      "de": 111,
      "or": 112,
      "en": 113,
      "le": 114,
      "im": 115,
      "lf": 116,
      "self": 117,
      "om": 118,
      "te": 119,
      "la": 120,
      "ge": 121,
      "ion": 122,
      "ar": 123,
      "el": 124,
      "ut": 125,
      "li": 126,
      "ent": 127,
      "an": 128,
      "fi": 129,
      "()": 130,
      "me": 131,
      "ap": 132,
      "ct": 133,
      "th": 134,
      "al": 135,
      "ss": 136,
      "ch": 137,
      "ort": 138,
      "ate": 139,
      "port": 140,
      "ur": 141,
      "id": 142,
      "rom": 143,
      "import": 144,
      "ue": 145,
      "po": 146,
      "str": 147,
      "er": 148,
      "from": 149,
      "ing": 150,
      "ode": 151,
      "age": 152,
      "ame": 153,
      "di": 154,
      "lo": 155,
      "_c": 156,
      "bel": 157,
      "def": 158,
      "int": 159,
      "vi": 160,
      "ment": 161,
      "pt": 162,
      "get": 163,
      "to": 164,
      "ro": 165,
      "ad": 166,
      "label": 167,
      "ata": 168,
      "out": 169,
      "ce": 170,
      "as": 171,
      "\"\"": 172,
      "if": 173,
      "):": 174,
      "be": 175,
      "tr": 176,
      "ser": 177,
      "\",": 178,
      "for": 179,
      "_p": 180,
      "sh": 181,
      "ret": 182,
      "sp": 183,
      "do": 184,
      "it": 185,
      "name": 186,
      "tem": 187,
      "ape": 188,
      "ke": 189,
      "file": 190,
      "data": 191,
      "un": 192,
      "ve": 193,
      "urn": 194,
      "ol": 195,
      "return": 196,
      "xt": 197,
      "set": 198,
      "list": 199,
      "the": 200,
      "que": 201,
      "omment": 202,
      "con": 203,
      "post": 204,
      "image": 205,
      "ction": 206,
      "ter": 207,
      "_id": 208,
      "\")": 209,
      "sc": 210,
      "ri": 211,
      "ption": 212,
      "fig": 213,
      "ain": 214,
      "ath": 215,
      "odel": 216,
      "ube": 217,
      "shape": 218,
      "ation": 219,
      "deo": 220,
      "lass": 221,
      "one": 222,
      "res": 223,
      "_name": 224,
      "em": 225,
      "is": 226,
      "no": 227,
      "ex": 228,
      "gs": 229,
      "reate": 230,
      "(\"": 231,
      "ab": 232,
      "video": 233,
      "None": 234,
      "d_": 235,
      "ul": 236,
      "text": 237,
      "der": 238,
      "app": 239,
      "ase": 240,
      "il": 241,
      "doc": 242,
      "class": 243,
      "put": 244,
      "--": 245,
      "Re": 246,
      "nt": 247,
      "yout": 248,
      "__": 249,
      "\":": 250,
      "Qt": 251,
      "item": 252,
      "',": 253,
      "dir": 254,
      "ine": 255,
      "and": 256,
      "model": 257,
      "Se": 258,
      "op": 259,
      "\"\"\"": 260,
      "=\"": 261,
      "point": 262,
      "comment": 263,
      "ist": 264,
      "ht": 265,
      "ic": 266,
      "ze": 267,
      "_file": 268,
      "\"]": 269,
      "youtube": 270,
      "quest": 271,
      "[\"": 272,
      "arch": 273,
      "ult": 274,
      "))": 275,
      "ra": 276,
      "nel": 277,
      "ne": 278,
      "he": 279,
      "len": 280,
      "du": 281,
      "ith": 282,
      "able": 283,
      "lay": 284,
      "pro": 285,
      "not": 286,
      "ip": 287,
      "_s": 288,
      "idget": 289,
      "ty": 290,
      "pr": 291,
      "user": 292,
      "par": 293,
      "create": 294,
      "up": 295,
      "onfig": 296,
      "annel": 297,
      "ma": 298,
      "get_": 299,
      "log": 300,
      "_dir": 301,
      "Fi": 302,
      "print": 303,
      "),": 304,
      "Po": 305,
      "mo": 306,
      "_data": 307,
      "->": 308,
      "scri": 309,
      "with": 310,
      "pe": 311,
      "load": 312,
      "args": 313,
      "ck": 314,
      "um": 315,
      "val": 316,
      "img": 317,
      "channel": 318,
      "bo": 319,
      "ize": 320,
      "og": 321,
      "atu": 322,
      "ou": 323,
      "uth": 324,
      "form": 325,
      "_path": 326,
      "('": 327,
      "son": 328,
      "ssion": 329,
      "date": 330,
      "ave": 331,
      "late": 332,
      "ag": 333,
      "ime": 334,
      "ore": 335,
      "config": 336,
      "json": 337,
      "laylist": 338,
      "Tr": 339,
      "value": 340,
      "ly": 341,
      "ver": 342,
      "our": 343,
      "##": 344,
      "spon": 345,
      "')": 346,
      "Widget": 347,
      "lide": 348,
      "output": 349,
      "key": 350,
      "sponse": 351,
      "ed": 352,
      "request": 353,
      "==": 354,
      "py": 355,
      "add": 356,
      "ry": 357,
      "open": 358,
      "ig": 359,
      "ror": 360,
      "Sh": 361,
      "of": 362,
      "db": 363,
      "ial": 364,
      "unction": 365,
      "scription": 366,
      "auth": 367,
      "ssage": 368,
      ").": 369,
      "lient": 370,
      "ask": 371,
      "chain": 372,
      "cl": 373,
      "_to": 374,
      "='": 375,
      "La": 376,
      "code": 377,
      "lename": 378,
      "url": 379,
      "string": 380,
      "ptional": 381,
      "act": 382,
      "time": 383,
      "fe": 384,
      "path": 385,
      "description": 386,
      "os": 387,
      "es": 388,
      "filename": 389,
      "save": 390,
      "True": 391,
      "session": 392,
      "Shape": 393,
      "eld": 394,
      "List": 395,
      "ader": 396,
      "pre": 397,
      "ument": 398,
      "Base": 399,
      "tran": 400,
      "You": 401,
      "wa": 402,
      "alse": 403,
      "False": 404,
      "Item": 405,
      "function": 406,
      "ted": 407,
      "all": 408,
      "ali": 409,
      "points": 410,
      "ider": 411,
      "ng": 412,
      "ory": 413,
      "art": 414,
      "jo": 415,
      "osp": 416,
      "agent": 417,
      "Post": 418,
      "Im": 419,
      "am": 420,
      "search": 421,
      "ault": 422,
      "ew": 423,
      "fla": 424,
      "_config": 425,
      "dict": 426,
      "ctions": 427,
      "docstring": 428,
      "join": 429,
      "like": 430,
      "ger": 431,
      "end": 432,
      "format": 433,
      "St": 434,
      "per": 435,
      "i_": 436,
      "labels": 437,
      "ll": 438,
      "ps": 439,
      "raw": 440,
      "ass": 441,
      "et": 442,
      "response": 443,
      "je": 444,
      "line": 445,
      "Tube": 446,
      "od": 447,
      "sk": 448,
      "itle": 449,
      "----": 450,
      "YouTube": 451,
      "RE": 452,
      "default": 453,
      "ject": 454,
      "():": 455,
      "plate": 456,
      "oog": 457,
      "oogle": 458,
      "slide": 459,
      "sele": 460,
      "File": 461,
      "Label": 462,
      "Mode": 463,
      "ource": 464,
      "dent": 465,
      "cur": 466,
      "mask": 467,
      "rror": 468,
      "cont": 469,
      "type": 470,
      "['": 471,
      "com": 472,
      "ive": 473,
      "title": 474,
      "Model": 475,
      "read": 476,
      "ema": 477,
      "Optional": 478,
      "rap": 479,
      "Ch": 480,
      "dow": 481,
      "']": 482,
      "mar": 483,
      "rent": 484,
      "else": 485,
      "logger": 486,
      "Error": 487,
      "cted": 488,
      "(),": 489,
      "dule": 490,
      "base": 491,
      "featu": 492,
      "Config": 493,
      "Data": 494,
      "User": 495,
      "rompt": 496,
      "train": 497,
      "spider": 498,
      "exce": 499,
      "create_": 500,
      "To": 501,
      "cation": 502,
      "ack": 503,
      "top": 504,
      "Image": 505,
      "rapy": 506,
      "Create": 507,
      "fin": 508,
      "result": 509,
      "ils": 510,
      "author": 511,
      "ER": 512,
      "by": 513,
      "labelme": 514,
      "Search": 515,
      "ters": 516,
      "\".": 517,
      "lang": 518,
      "cess": 519,
      "olor": 520,
      "Par": 521,
      "wor": 522,
      "input": 523,
      "_size": 524,
      "Core": 525,
      "message": 526,
      "view": 527,
      "QtCore": 528,
      "Field": 529,
      "features": 530,
      "ant": 531,
      "shapes": 532,
      "Comment": 533,
      "The": 534,
      "comments": 535,
      "ics": 536,
      "module": 537,
      "In": 538,
      "bject": 539,
      "::": 540,
      "ast": 541,
      "sec": 542,
      "_comment": 543,
      "langchain": 544,
      "T_": 545,
      "gon": 546,
      "ging": 547,
      "ameters": 548,
      "load_": 549,
      "Ex": 550,
      "rect": 551,
      "parse": 552,
      "secret": 553,
      "De": 554,
      "_to_": 555,
      "ub": 556,
      "\"),": 557,
      "scrapy": 558,
      "ms": 559,
      "env": 560,
      "logging": 561,
      "ght": 562,
      "ok": 563,
      "che": 564,
      "ings": 565,
      "_client": 566,
      "ext": 567,
      "fo": 568,
      "ator": 569,
      "AI": 570,
      "sion": 571,
      "':": 572,
      "playlist": 573,
      "s_": 574,
      "init": 575,
      "st_": 576,
      "can": 577,
      "inst": 578,
      "utils": 579,
      "meth": 580,
      "trans": 581,
      "oc": 582,
      "().": 583,
      "api_": 584,
      "duct": 585,
      "00": 586,
      "_image": 587,
      "node": 588,
      "queue": 589,
      "_names": 590,
      "htt": 591,
      "max": 592,
      "####": 593,
      "current": 594,
      "ON": 595,
      "_code": 596,
      "method": 597,
      "redent": 598,
      "arg": 599,
      "())": 600,
      "viz": 601,
      "redential": 602,
      "nn": 603,
      "ui": 604,
      "rc": 605,
      "dit": 606,
      "post_data": 607,
      "//": 608,
      "np": 609,
      "query": 610,
      "embe": 611,
      "QtWidget": 612,
      "QtWidgets": 613,
      "An": 614,
      "ener": 615,
      "loader": 616,
      "mark": 617,
      "ange": 618,
      "flags": 619,
      "redentials": 620,
      "TT": 621,
      "Th": 622,
      "post_id": 623,
      "Vi": 624,
      "object": 625,
      "Request": 626,
      "output_dir": 627,
      "topics": 628,
      "PI": 629,
      "dd": 630,
      "oom": 631,
      "search_": 632,
      "_url": 633,
      "draw": 634,
      "ple": 635,
      "start": 636,
      "content": 637,
      "],": 638,
      "dot": 639,
      "ev": 640,
      "lin": 641,
      "ont": 642,
      "msg": 643,
      "Get": 644,
      "ST": 645,
      "qt": 646,
      "},": 647,
      "info": 648,
      "tool": 649,
      "template": 650,
      "olum": 651,
      "items": 652,
      "wait": 653,
      "dotenv": 654,
      "olumn": 655,
      ".\"\"\"": 656,
      "ow": 657,
      "pen": 658,
      "vali": 659,
      "lit": 660,
      "try": 661,
      "Point": 662,
      "atus": 663,
      "Me": 664,
      "client": 665,
      "coder": 666,
      "oun": 667,
      "://": 668,
      "_type": 669,
      "sen": 670,
      "sent": 671,
      "ance": 672,
      "low": 673,
      "move": 674,
      "_par": 675,
      "abled": 676,
      "selected": 677,
      "E_": 678,
      "cut": 679,
      "vas": 680,
      "dex": 681,
      "email": 682,
      "down": 683,
      "await": 684,
      "ust": 685,
      "sert": 686,
      "new": 687,
      "process": 688,
      "parser": 689,
      "..": 690,
      "table": 691,
      "ml": 692,
      "chem": 693,
      "_comments": 694,
      "Pro": 695,
      "models": 696,
      "IN": 697,
      "])": 698,
      "num": 699,
      "iment": 700,
      "__init": 701,
      "__init__": 702,
      "ep": 703,
      "edit": 704,
      "vel": 705,
      "eline": 706,
      "ers": 707,
      "terator": 708,
      "\"],": 709,
      "ac": 710,
      "ta": 711,
      "tings": 712,
      "ipeline": 713,
      "Shapes": 714,
      "Tool": 715,
      "okmark": 716,
      "Any": 717,
      "Message": 718,
      "HTT": 719,
      "Open": 720,
      "_secret": 721,
      "action": 722,
      "back": 723,
      "pos": 724,
      "HTTP": 725,
      "widget": 726,
      "client_secret": 727,
      "credentials": 728,
      "ang": 729,
      "video_": 730,
      "link": 731,
      "cate": 732,
      "ount": 733,
      "En": 734,
      "google": 735,
      "tion": 736,
      "idth": 737,
      "word": 738,
      "https": 739,
      "embedd": 740,
      "zoom": 741,
      "canvas": 742,
      "dle": 743,
      "main": 744,
      "product": 745,
      "enerate": 746,
      "Fla": 747,
      "Sc": 748,
      "actions": 749,
      "ies": 750,
      "iddle": 751,
      "error": 752,
      "add_": 753,
      "Status": 754,
      "author_id": 755,
      "gment": 756,
      "ken": 757,
      "ker": 758,
      "Response": 759,
      "likes": 760,
      "Google": 761,
      "pass": 762,
      "sy": 763,
      "poly": 764,
      "exist": 765,
      "update": 766,
      "iddlewa": 767,
      "polygon": 768,
      "DE": 769,
      "OR": 770,
      "hel": 771,
      "ivi": 772,
      "{}": 773,
      "video_id": 774,
      "document": 775,
      "results": 776,
      "_t": 777,
      "_docstring": 778,
      "ale": 779,
      "thon": 780,
      "aly": 781,
      "_labels": 782,
      "yle": 783,
      "BaseModel": 784,
      "datetime": 785,
      "remove": 786,
      "enu": 787,
      "location": 788,
      "docs": 789,
      "part": 790,
      "except": 791,
      "Con": 792,
      "_queue": 793,
      "gro": 794,
      "map": 795,
      "wh": 796,
      "atch": 797,
      "right": 798,
      "Parameters": 799,
      "_st": 800,
      "size": 801,
      "tex": 802,
      "split": 803,
      "settings": 804,
      "api_key": 805,
      "sup": 806,
      "index": 807,
      "analy": 808,
      "dis": 809,
      "transcri": 810,
      "ivity": 811,
      "Bo": 812,
      "tor": 813,
      "use": 814,
      "database": 815,
      "andle": 816,
      "exception": 817,
      "valid": 818,
      "torch": 819,
      "Di": 820,
      "Path": 821,
      "bl": 822,
      "ise": 823,
      "rst": 824,
      "sor": 825,
      "s_file": 826,
      "ute": 827,
      "ded": 828,
      "shape_type": 829,
      "videos": 830,
      "html": 831,
      "img_": 832,
      "ign": 833,
      "ight": 834,
      "Playlist": 835,
      "_item": 836,
      "{\"": 837,
      "elif": 838,
      "lication": 839,
      "ther": 840,
      "_playlist": 841,
      "posts": 842,
      "channels": 843,
      "save_": 844,
      "Video": 845,
      "Dial": 846,
      "Py": 847,
      "min": 848,
      "your": 849,
      "orm": 850,
      "aption": 851,
      "direct": 852,
      "HTTPStatus": 853,
      "Ke": 854,
      "dri": 855,
      "nip": 856,
      "label_name": 857,
      "assert": 858,
      "apped": 859,
      "pet": 860,
      "imgviz": 861,
      "load_dotenv": 862,
      "OpenAI": 863,
      "iddleware": 864,
      "nippet": 865,
      "generate": 866,
      "ure": 867,
      "Session": 868,
      "bookmark": 869,
      "instance": 870,
      "transform": 871,
      "Dialog": 872,
      "iterator": 873,
      "enc": 874,
      "pop": 875,
      "from_": 876,
      "youtube_client": 877,
      "version": 878,
      "predi": 879,
      "embedding": 880,
      "Li": 881,
      "``": 882,
      "ix": 883,
      "lear": 884,
      "row": 885,
      "exe": 886,
      "Sele": 887,
      "slides": 888,
      "find_": 889,
      "argument": 890,
      "Lo": 891,
      "are": 892,
      "den": 893,
      "lete": 894,
      "label_file": 895,
      "latest": 896,
      "antic": 897,
      "send": 898,
      "ION": 899,
      "Mo": 900,
      "Pre": 901,
      "Tem": 902,
      "dantic": 903,
      "y_": 904,
      "vice": 905,
      "Like": 906,
      "Template": 907,
      "25": 908,
      "ble": 909,
      "eng": 910,
      "that": 911,
      "_color": 912,
      "tract": 913,
      "application": 914,
      "64": 915,
      "Sp": 916,
      "].": 917,
      "ai": 918,
      "da": 919,
      "rg": 920,
      "test_": 921,
      "file_path": 922,
      "append": 923,
      "raise": 924,
      "10": 925,
      "EN": 926,
      "Text": 927,
      "oi": 928,
      "optional": 929,
      "we": 930,
      "resource": 931,
      "andom": 932,
      "over": 933,
      "ome": 934,
      "make": 935,
      "lides": 936,
      "ListWidget": 937,
      "=[\"": 938,
      "[]": 939,
      "ron": 940,
      "indow": 941,
      "lery": 942,
      "chema": 943,
      "_pro": 944,
      "dataset": 945,
      "Parser": 946,
      "_in": 947,
      "ai_": 948,
      "caption": 949,
      "iv": 950,
      "atter": 951,
      "label_": 952,
      "train_": 953,
      "drawing": 954,
      "store": 955,
      "delete": 956,
      "list_": 957,
      "conne": 958,
      "imageData": 959,
      "point_labels": 960,
      "ray": 961,
      "createMode": 962,
      "find": 963,
      "event": 964,
      "group": 965,
      "Id": 966,
      "ea": 967,
      "sub": 968,
      "uage": 969,
      "fill": 970,
      "OptionalParameters": 971,
      "check": 972,
      "categ": 973,
      "add_argument": 974,
      "exists": 975,
      "%(": 976,
      "AT": 977,
      "EY": 978,
      "Gui": 979,
      "L_": 980,
      "Prompt": 981,
      "bu": 982,
      "io": 983,
      "width": 984,
      "red": 985,
      "envi": 986,
      "first": 987,
      "_class": 988,
      "_count": 989,
      "data_dir": 990,
      "QtGui": 991,
      "Thread": 992,
      "PromptTemplate": 993,
      "environ": 994,
      "Ver": 995,
      "mp": 996,
      "ot": 997,
      "sq": 998,
      "req": 999,
      "\"))": 1000,
      "_source": 1001,
      "comm": 1002,
      "tools": 1003,
      "transcript": 1004,
      "directory": 1005,
      "ative": 1006,
      "rep": 1007,
      "ked": 1008,
      "agent_": 1009,
      "Def": 1010,
      "PIL": 1011,
      "num_": 1012,
      "Part": 1013,
      "color": 1014,
      "fset": 1015,
      "handle": 1016,
      "run": 1017,
      "led": 1018,
      "utf": 1019,
      "fil": 1020,
      "labelList": 1021,
      "opy": 1022,
      "bot": 1023,
      "ixmap": 1024,
      "group_id": 1025,
      "hid": 1026,
      "middleware": 1027,
      "range": 1028,
      "next": 1029,
      "ocab": 1030,
      "**": 1031,
      "Auth": 1032,
      "ree": 1033,
      "ard": 1034,
      "arr": 1035,
      "chat": 1036,
      "ortcut": 1037,
      "scale": 1038,
      "selectedShapes": 1039,
      "oice": 1040,
      "15": 1041,
      "20": 1042,
      "=[": 1043,
      "KEY": 1044,
      "ci": 1045,
      "prompt": 1046,
      "{'": 1047,
      "ness": 1048,
      "bool": 1049,
      "offset": 1050,
      "flask": 1051,
      "engine": 1052,
      "Che": 1053,
      "random": 1054,
      "vocab": 1055,
      "wri": 1056,
      "light": 1057,
      "choice": 1058,
      "uration": 1059,
      "lose": 1060,
      "_column": 1061,
      "Segment": 1062,
      "comment_": 1063,
      "_src": 1064,
      "all_": 1065,
      "oding": 1066,
      "This": 1067,
      "help": 1068,
      "optional_par": 1069,
      "'))": 1070,
      "Lang": 1071,
      "Que": 1072,
      "Slides": 1073,
      "_node": 1074,
      "ft": 1075,
      "schem": 1076,
      "uu": 1077,
      "you": 1078,
      "lish": 1079,
      "trast": 1080,
      "user_": 1081,
      "pydantic": 1082,
      "cls": 1083,
      "########": 1084,
      "Flask": 1085,
      "rightness": 1086,
      "super": 1087,
      "Language": 1088,
      "schemas": 1089,
      "AD": 1090,
      "Com": 1091,
      "TE": 1092,
      "VER": 1093,
      "_f": 1094,
      "_v": 1095,
      "iz": 1096,
      "source": 1097,
      "enabled": 1098,
      "mer": 1099,
      "roll": 1100,
      "files": 1101,
      "und": 1102,
      "ill": 1103,
      "class_name": 1104,
      "CreatePlaylist": 1105,
      "encoding": 1106,
      "filter": 1107,
      "uuid": 1108,
      "NO": 1109,
      "Out": 1110,
      "Window": 1111,
      "g_": 1112,
      "lchem": 1113,
      "qu": 1114,
      "sing": 1115,
      "reg": 1116,
      "thread": 1117,
      "_con": 1118,
      "here": 1119,
      "igh": 1120,
      "ample": 1121,
      "--------": 1122,
      ".')": 1123,
      "Line": 1124,
      "UR": 1125,
      "]:": 1126,
      "nc": 1127,
      "decoder": 1128,
      "ension": 1129,
      "fier": 1130,
      "strip": 1131,
      "celery": 1132,
      "_prompt": 1133,
      "shortcut": 1134,
      "old": 1135,
      "images": 1136,
      "get_db": 1137,
      "channel_id": 1138,
      "YouTubeRequest": 1139,
      "Python": 1140,
      "transforms": 1141,
      "Vertex": 1142,
      "OS": 1143,
      "Pipeline": 1144,
      "kw": 1145,
      "mb": 1146,
      "level": 1147,
      "lalchem": 1148,
      "ans": 1149,
      "and_": 1150,
      "image_url": 1151,
      "exper": 1152,
      "header": 1153,
      "Enabled": 1154,
      "Doc": 1155,
      "__name": 1156,
      "css": 1157,
      "has": 1158,
      "vent": 1159,
      "})": 1160,
      "lease": 1161,
      "ted_": 1162,
      "anage": 1163,
      "stru": 1164,
      "nore": 1165,
      "\"])": 1166,
      "clu": 1167,
      "_to_value": 1168,
      "sentiment": 1169,
      "process_": 1170,
      "client_secret_file": 1171,
      "drive": 1172,
      "label_name_to_value": 1173,
      "bookmarks": 1174,
      "sqlalchem": 1175,
      "commit": 1176,
      "write": 1177,
      "optional_parameters": 1178,
      "__name__": 1179,
      "'},": 1180,
      "Cal": 1181,
      "EC": 1182,
      "ED": 1183,
      "UT": 1184,
      "ww": 1185,
      "rel": 1186,
      "rop": 1187,
      "ception": 1188,
      "setEnabled": 1189,
      "users": 1190,
      "llm": 1191,
      "CommentThread": 1192,
      "extension": 1193,
      "cutor": 1194,
      "email_": 1195,
      "Dir": 1196,
      "hidden": 1197,
      "kwargs": 1198,
      "Class": 1199,
      "Mapped": 1200,
      "QA": 1201,
      "cked": 1202,
      "flo": 1203,
      "ful": 1204,
      "lim": 1205,
      "vo": 1206,
      "rec": 1207,
      "review": 1208,
      "org": 1209,
      "\"]:": 1210,
      "mail": 1211,
      "maker": 1212,
      "Change": 1213,
      "search_iterator": 1214,
      "qtpy": 1215,
      "qtbot": 1216,
      "connect": 1217,
      "category": 1218,
      "((": 1219,
      "2d": 1220,
      "Event": 1221,
      "_open": 1222,
      "ping": 1223,
      "invo": 1224,
      "ress": 1225,
      "opes": 1226,
      "requests": 1227,
      "address": 1228,
      "activity": 1229,
      "prev": 1230,
      "function_code": 1231,
      "module_path": 1232,
      "Spider": 1233,
      "attern": 1234,
      "sqlalchemy": 1235,
      "([": 1236,
      "32": 1237,
      "AB": 1238,
      "Wh": 1239,
      "_embedding": 1240,
      "ache": 1241,
      "cal": 1242,
      "lbl": 1243,
      "snippet": 1244,
      "ref": 1245,
      "lib": 1246,
      "ify": 1247,
      "post_image": 1248,
      "user_id": 1249,
      "Layout": 1250,
      "select": 1251,
      "ontent": 1252,
      "download": 1253,
      "Output": 1254,
      "float": 1255,
      "invoke": 1256,
      "Act": 1257,
      "_channels": 1258,
      "gra": 1259,
      "home": 1260,
      "ield": 1261,
      "mm": 1262,
      "other": 1263,
      "label_names": 1264,
      "extract": 1265,
      "class_names": 1266,
      "ister": 1267,
      "archive": 1268,
      "height": 1269,
      "provi": 1270,
      "argparse": 1271,
      "angle": 1272,
      "_style": 1273,
      "analyze": 1274,
      "Loader": 1275,
      "rgb": 1276,
      "clude": 1277,
      "100": 1278,
      "Ma": 1279,
      "SEC": 1280,
      "_A": 1281,
      "_by": 1282,
      "gle": 1283,
      "ho": 1284,
      "ton": 1285,
      "win": 1286,
      "ind": 1287,
      "encoder": 1288,
      "lean": 1289,
      "fit": 1290,
      "ity": 1291,
      "ols": 1292,
      "is_": 1293,
      "typing": 1294,
      "ignore": 1295,
      "endar": 1296,
      "methods": 1297,
      "View": 1298,
      "lower": 1299,
      "anager": 1300,
      "gramm": 1301,
      "gramming": 1302,
      "Ag": 1303,
      "Ai": 1304,
      "LE_": 1305,
      "_template": 1306,
      "dy": 1307,
      "menu": 1308,
      "pa": 1309,
      "page": 1310,
      "so": 1311,
      "yield": 1312,
      "ari": 1313,
      "pose": 1314,
      "_content": 1315,
      "adata": 1316,
      "uni": 1317,
      "dump": 1318,
      "format_in": 1319,
      "train_config": 1320,
      "max_": 1321,
      "sentation": 1322,
      "_parser": 1323,
      "posit": 1324,
      "sys": 1325,
      "_tree": 1326,
      "Key": 1327,
      "executor": 1328,
      "requi": 1329,
      "Queue": 1330,
      "shortcuts": 1331,
      "Document": 1332,
      "structions": 1333,
      "limit": 1334,
      "Changed": 1335,
      "format_instructions": 1336,
      "\"{": 1337,
      "-%": 1338,
      ":%": 1339,
      "HE": 1340,
      "Schema": 1341,
      "_and_": 1342,
      "brightness": 1343,
      "close": 1344,
      "ed_": 1345,
      "hShape": 1346,
      "ide": 1347,
      "mt": 1348,
      "mode": 1349,
      "tar": 1350,
      "task": 1351,
      "will": 1352,
      "lar": 1353,
      "utton": 1354,
      "this": 1355,
      "values": 1356,
      "Chat": 1357,
      "ublish": 1358,
      "GetPost": 1359,
      "documentation": 1360,
      "Box": 1361,
      "Cur": 1362,
      "Function": 1363,
      "ME": 1364,
      "QU": 1365,
      "kF": 1366,
      "ks": 1367,
      "state": 1368,
      "reset": 1369,
      "test": 1370,
      "lace": 1371,
      "tog": 1372,
      "img_data": 1373,
      "amps": 1374,
      "Images": 1375,
      "SearchOptionalParameters": 1376,
      "SearchPart": 1377,
      "CR": 1378,
      "Lea": 1379,
      "Pol": 1380,
      "Save": 1381,
      "ygon": 1382,
      "sease": 1383,
      "ins": 1384,
      "stem": 1385,
      "tes": 1386,
      "array": 1387,
      "entic": 1388,
      "api": 1389,
      "dist": 1390,
      "disease": 1391,
      "show": 1392,
      "does": 1393,
      "keep": 1394,
      "user_data": 1395,
      "box": 1396,
      "rcle": 1397,
      "ignal": 1398,
      "handler": 1399,
      "Segmentation": 1400,
      "relation": 1401,
      "Leaf": 1402,
      "Polygon": 1403,
      "LA": 1404,
      "MO": 1405,
      "Val": 1406,
      "_str": 1407,
      "_from_": 1408,
      "batch": 1409,
      "gmail": 1410,
      "jp": 1411,
      "pixmap": 1412,
      "segment": 1413,
      "ensor": 1414,
      "unct": 1415,
      "now": 1416,
      "See": 1417,
      "layers": 1418,
      "configuration": 1419,
      "presentation": 1420,
      "pers": 1421,
      "Exception": 1422,
      "Programming": 1423,
      "google_": 1424,
      "when": 1425,
      "agent_executor": 1426,
      "register": 1427,
      "email_address": 1428,
      "SECRE": 1429,
      "toggle": 1430,
      "Value": 1431,
      "jpg": 1432,
      "({\"": 1433,
      "He": 1434,
      "IP": 1435,
      "S_": 1436,
      "_shape": 1437,
      "aut": 1438,
      "copy": 1439,
      "clean": 1440,
      "ning": 1441,
      "pipeline": 1442,
      "tadata": 1443,
      "y1": 1444,
      "inue": 1445,
      "device": 1446,
      "ord": 1447,
      "ories": 1448,
      "ary": 1449,
      "lick": 1450,
      "metadata": 1451,
      "ueprint": 1452,
      "token": 1453,
      "asy": 1454,
      "_pass": 1455,
      "python": 1456,
      "authentic": 1457,
      "LabelFile": 1458,
      "Channel": 1459,
      "_fact": 1460,
      "register_": 1461,
      "By": 1462,
      "Str": 1463,
      "TION": 1464,
      "_doc": 1465,
      "ake": 1466,
      "b64": 1467,
      "high": 1468,
      "nx": 1469,
      "oth": 1470,
      "x1": 1471,
      "resh": 1472,
      "redis": 1473,
      "imagePath": 1474,
      "scroll": 1475,
      "ainter": 1476,
      "ations": 1477,
      "exc": 1478,
      "dirs": 1479,
      "Set": 1480,
      "istant": 1481,
      ")),": 1482,
      "body": 1483,
      "assistant": 1484,
      "contain": 1485,
      "parse_": 1486,
      "http": 1487,
      "ING": 1488,
      "velop": 1489,
      "DES": 1490,
      "web": 1491,
      "captions": 1492,
      "experiment": 1493,
      "extensions": 1494,
      "Activity": 1495,
      "QUE": 1496,
      "SECRET_": 1497,
      "DO": 1498,
      "Please": 1499,
      "Vis": 1500,
      "Width": 1501,
      "est": 1502,
      "ifier": 1503,
      "just": 1504,
      "md": 1505,
      "png": 1506,
      "ug": 1507,
      "ype": 1508,
      "rea": 1509,
      "ense": 1510,
      "_pre": 1511,
      "_pattern": 1512,
      "undo": 1513,
      "Rect": 1514,
      "ables": 1515,
      "functions": 1516,
      "REQUE": 1517,
      "word_": 1518,
      "makedirs": 1519,
      "fill_color": 1520,
      "Agent": 1521,
      "requires": 1522,
      "\"--": 1523,
      "12": 1524,
      "RO": 1525,
      "Un": 1526,
      "go": 1527,
      "gative": 1528,
      "pad": 1529,
      "txt": 1530,
      "ula": 1531,
      "wer": 1532,
      "only": 1533,
      "onnx": 1534,
      "style": 1535,
      "ating": 1536,
      "ids": 1537,
      "tri": 1538,
      "BaseConfig": 1539,
      "YouTubeResponse": 1540,
      "ackage": 1541,
      "rectangle": 1542,
      "client_secrets_file": 1543,
      "video_title": 1544,
      "blueprint": 1545,
      "Move": 1546,
      "_process": 1547,
      "provided": 1548,
      "authenticate": 1549,
      "SECRET_KEY": 1550,
      "For": 1551,
      "NA": 1552,
      "QPoint": 1553,
      "_text": 1554,
      "count": 1555,
      "clear": 1556,
      "ffi": 1557,
      "fmt": 1558,
      "pi": 1559,
      "x2": 1560,
      "y2": 1561,
      "inter": 1562,
      "round": 1563,
      "video_comments": 1564,
      "model_": 1565,
      "_token": 1566,
      "allback": 1567,
      "Created": 1568,
      "_urls": 1569,
      "downloader": 1570,
      "links": 1571,
      "password": 1572,
      "whi": 1573,
      "predictions": 1574,
      "```": 1575,
      "Selected": 1576,
      "resources": 1577,
      "max_results": 1578,
      "_and_docstring": 1579,
      "ublished": 1580,
      "CRIP": 1581,
      "DESCRIP": 1582,
      "ulary": 1583,
      "DESCRIPTION": 1584,
      "!=": 1585,
      "\"%": 1586,
      "AC": 1587,
      "Action": 1588,
      "Column": 1589,
      "CUR": 1590,
      "FO": 1591,
      "Fil": 1592,
      "GE": 1593,
      "LL": 1594,
      "Log": 1595,
      "MA": 1596,
      "Name": 1597,
      "PO": 1598,
      "SS": 1599,
      "SER": 1600,
      "Up": 1601,
      "Vali": 1602,
      "[-": 1603,
      "column": 1604,
      "giv": 1605,
      "mapped": 1606,
      "tt": 1607,
      "include": 1608,
      "atic": 1609,
      "annot": 1610,
      "pout": 1611,
      "ropout": 1612,
      "ship": 1613,
      "dirname": 1614,
      "ature": 1615,
      "default_fact": 1616,
      "img_arr": 1617,
      "popul": 1618,
      "Check": 1619,
      "_vari": 1620,
      "relationship": 1621,
      "Valid": 1622,
      "mapped_column": 1623,
      "default_factory": 1624,
      "Color": 1625,
      "_app": 1626,
      "_logger": 1627,
      "_message": 1628,
      "co": 1629,
      "gr": 1630,
      "l_": 1631,
      "lon": 1632,
      "option": 1633,
      "ru": 1634,
      "sse": 1635,
      "sle": 1636,
      "sult": 1637,
      "war": 1638,
      "resp": 1639,
      "decode": 1640,
      "ori": 1641,
      "lamb": 1642,
      "fiers": 1643,
      "ated": 1644,
      "lot": 1645,
      "_com": 1646,
      "cept": 1647,
      "service": 1648,
      "_pil": 1649,
      "post_": 1650,
      "noviz": 1651,
      "__main": 1652,
      "State": 1653,
      "create_app": 1654,
      "install_": 1655,
      "validate": 1656,
      "send_": 1657,
      "{}\".": 1658,
      "_docstring_node": 1659,
      "Contrast": 1660,
      "Selection": 1661,
      "Author": 1662,
      "Compose": 1663,
      "hidden_size": 1664,
      "Filter": 1665,
      "_variables": 1666,
      "sleep": 1667,
      "lambda": 1668,
      "__main__": 1669,
      "install_requires": 1670,
      "Bar": 1671,
      "IT": 1672,
      "LE": 1673,
      "ND": 1674,
      "PE": 1675,
      "_label": 1676,
      "_function": 1677,
      "cat": 1678,
      "cli": 1679,
      "n_": 1680,
      "oauth": 1681,
      "}.": 1682,
      "tour": 1683,
      "out_file": 1684,
      "_published": 1685,
      "negative": 1686,
      "ummar": 1687,
      "lyle": 1688,
      "activ": 1689,
      "Files": 1690,
      "masks": 1691,
      "credentials_dir": 1692,
      "validation": 1693,
      "vocabulary": 1694,
      "async": 1695,
      "16": 1696,
      ":\",": 1697,
      "Back": 1698,
      "Dri": 1699,
      "Fore": 1700,
      "Iterator": 1701,
      "OO": 1702,
      "Sty": 1703,
      "Time": 1704,
      "bab": 1705,
      "bold": 1706,
      "cted_": 1707,
      "fol": 1708,
      "oul": 1709,
      "pli": 1710,
      "sit": 1711,
      "signal": 1712,
      "tom": 1713,
      "del": 1714,
      "ors": 1715,
      "ence": 1716,
      "lement": 1717,
      "entation": 1718,
      "entry": 1719,
      "temper": 1720,
      "probab": 1721,
      "pest": 1722,
      "vert": 1723,
      "aliz": 1724,
      "PostAuthor": 1725,
      "etcode": 1726,
      "_image_embedding": 1727,
      "objects": 1728,
      "Product": 1729,
      "tags": 1730,
      "Flags": 1731,
      "uuid4": 1732,
      "Called": 1733,
      "_prev": 1734,
      "_processor": 1735,
      "ould": 1736,
      "temperature": 1737,
      "2b": 1738,
      "Ed": 1739,
      "ID": 1740,
      "OT": 1741,
      "Object": 1742,
      "QP": 1743,
      "Snippet": 1744,
      "SION": 1745,
      "Tensor": 1746,
      "cache": 1747,
      "su": 1748,
      "src": 1749,
      "attr": 1750,
      "ler": 1751,
      "last": 1752,
      "ell": 1753,
      "former": 1754,
      "file_name": 1755,
      "scopes": 1756,
      "text_": 1757,
      "app_config": 1758,
      "doc_id": 1759,
      "date_published": 1760,
      "Trans": 1761,
      "vertex": 1762,
      "add_c": 1763,
      "alize": 1764,
      "oryks": 1765,
      "sklear": 1766,
      "ER_": 1767,
      "Index": 1768,
      "Develop": 1769,
      "own": 1770,
      "new_": 1771,
      "helpers": 1772,
      "slidesmodel": 1773,
      "find_channel": 1774,
      "overwrite": 1775,
      "checkpoint": 1776,
      "num_layers": 1777,
      "OutputParser": 1778,
      "positive": 1779,
      "keep_prev": 1780,
      "unctu": 1781,
      "REQUEST": 1782,
      "columns": 1783,
      "given": 1784,
      "ummary": 1785,
      "Style": 1786,
      "Edge": 1787,
      "sklearn": 1788,
      "+=": 1789,
      "23": 1790,
      "24": 1791,
      "Ap": 1792,
      "Actions": 1793,
      "Bl": 1794,
      "Cont": 1795,
      "Form": 1796,
      "NN": 1797,
      "Oper": 1798,
      "OAuth": 1799,
      "Run": 1800,
      "element": 1801,
      "opt": 1802,
      "turn": 1803,
      "yam": 1804,
      "insert": 1805,
      "deta": 1806,
      "left": 1807,
      "vect": 1808,
      "Result": 1809,
      "Return": 1810,
      "_schema": 1811,
      "latest_": 1812,
      "addWidget": 1813,
      "Img": 1814,
      "LabelList": 1815,
      "comple": 1816,
      "topic": 1817,
      "Invalid": 1818,
      "words": 1819,
      "Conv": 1820,
      "Bookmark": 1821,
      "Key_": 1822,
      "Preview": 1823,
      "each": 1824,
      "_source_queue": 1825,
      "quo": 1826,
      "single": 1827,
      "target": 1828,
      "Cursor": 1829,
      "highlight": 1830,
      "ackages": 1831,
      "blueprints": 1832,
      "orientation": 1833,
      "yaml": 1834,
      "26": 1835,
      "AUT": 1836,
      "Button": 1837,
      "CON": 1838,
      "LU": 1839,
      "Le": 1840,
      "Zoom": 1841,
      "_agent": 1842,
      "_response": 1843,
      "k_": 1844,
      "tag": 1845,
      "udi": 1846,
      "layout": 1847,
      "field": 1848,
      "()]": 1849,
      "()),": 1850,
      "lob": 1851,
      "\"\")": 1852,
      "contour": 1853,
      "_ids": 1854,
      "(\"&": 1855,
      "duction": 1856,
      "modi": 1857,
      "channel_name": 1858,
      "json_file": 1859,
      "LabelListWidget": 1860,
      "continue": 1861,
      "spiders": 1862,
      "views": 1863,
      "features_dir": 1864,
      "_to_arr": 1865,
      "api_version": 1866,
      "api_service": 1867,
      "ustom": 1868,
      "INT": 1869,
      "Direct": 1870,
      "255": 1871,
      "chat_": 1872,
      "Checked": 1873,
      "NOQA": 1874,
      "refresh": 1875,
      "cleaned": 1876,
      "POST": 1877,
      "warning": 1878,
      "delta": 1879,
      "add_css": 1880,
      "optim": 1881,
      "api_service_name": 1882,
      ".'},": 1883,
      "AR": 1884,
      "Copy": 1885,
      "Edit": 1886,
      "From": 1887,
      "Menu": 1888,
      "Not": 1889,
      "Type": 1890,
      "_object": 1891,
      "_KEY": 1892,
      "cru": 1893,
      "don": 1894,
      "hone": 1895,
      "icon": 1896,
      "manager": 1897,
      "non": 1898,
      "pl": 1899,
      "qLabelList": 1900,
      "tun": 1901,
      "us": 1902,
      "stamps": 1903,
      "route": 1904,
      "out_": 1905,
      "out_dir": 1906,
      "emit": 1907,
      "isinstance": 1908,
      "class_id": 1909,
      "andard": 1910,
      "project": 1911,
      "more": 1912,
      "ous": 1913,
      "key_": 1914,
      "keys": 1915,
      "db_con": 1916,
      "sessionmaker": 1917,
      "FileDialog": 1918,
      "'],": 1919,
      "Inte": 1920,
      "secrets_file": 1921,
      "PI_KEY": 1922,
      "Scrapy": 1923,
      "system": 1924,
      "ignKey": 1925,
      "_playlists": 1926,
      "driver": 1927,
      "256": 1928,
      "bug": 1929,
      "choices": 1930,
      "AD_": 1931,
      "CreatePlaylistItem": 1932,
      "----------": 1933,
      "www": 1934,
      "Maize": 1935,
      "uniqLabelList": 1936,
      "ChatOpenAI": 1937,
      "QPointF": 1938,
      "LLM": 1939,
      "Drive": 1940,
      "ForeignKey": 1941,
      "crud": 1942,
      "3Bl": 1943,
      "99": 1944,
      "As": 1945,
      "Draw": 1946,
      "Handle": 1947,
      "Lon": 1948,
      "Main": 1949,
      "Ne": 1950,
      "T3Bl": 1951,
      "[:": 1952,
      "_chain": 1953,
      "af": 1954,
      "bind": 1955,
      "bkF": 1956,
      "dtype": 1957,
      "eze": 1958,
      "eval": 1959,
      "eps": 1960,
      "ff": 1961,
      "fr": 1962,
      "font": 1963,
      "hVertex": 1964,
      "rt": 1965,
      "sque": 1966,
      "ving": 1967,
      "delay": 1968,
      "debug": 1969,
      "lider": 1970,
      "alth": 1971,
      "allow": 1972,
      "alendar": 1973,
      "ates": 1974,
      "_calendar": 1975,
      "ift": 1976,
      "d_size": 1977,
      "class_code": 1978,
      "ical": 1979,
      "rawler": 1980,
      "embed_size": 1981,
      "sync": 1982,
      "splitter": 1983,
      "analys": 1984,
      "used": 1985,
      "Prev": 1986,
      "label_value": 1987,
      "drawing_shape": 1988,
      "################": 1989,
      "izer": 1990,
      "g_description": 1991,
      "decoder_": 1992,
      "levelname": 1993,
      "AiModel": 1994,
      "model_dump": 1995,
      "long_description": 1996,
      "options": 1997,
      "alization": 1998,
      "text_splitter": 1999,
      "nonpy": 2000,
      "London": 2001,
      "T3BlbkF": 2002,
      "squeeze": 2003,
      "T3BlbkFJ": 2004,
      ".\")": 2005,
      "Arg": 2006,
      "Do": 2007,
      "Nor": 2008,
      "OP": 2009,
      "Sy": 2010,
      "SE_": 2011,
      "Use": 2012,
      "UND": 2013,
      "_user": 2014,
      "_email": 2015,
      "cre": 2016,
      "col": 2017,
      "gn": 2018,
      "p1": 2019,
      "pla": 2020,
      "ting": 2021,
      "y6": 2022,
      "encode": 2023,
      "apter": 2024,
      "thing": 2025,
      "best_": 2026,
      "trics": 2027,
      "splay": 2028,
      "fileListWidget": 2029,
      "context": 2030,
      "imageList": 2031,
      "example": 2032,
      "(\"/": 2033,
      "apping": 2034,
      "dock": 2035,
      "ReLU": 2036,
      "ined": 2037,
      "net": 2038,
      "ckWidget": 2039,
      "img_file": 2040,
      "adding": 2041,
      "selection": 2042,
      "'])": 2043,
      "Dataset": 2044,
      "spider_open": 2045,
      "maxResult": 2046,
      "_code_queue": 2047,
      "GetUser": 2048,
      "embeddings": 2049,
      "kernel": 2050,
      "documents": 2051,
      "enumer": 2052,
      "partial": 2053,
      "_state": 2054,
      "transcribe": 2055,
      "resource_id": 2056,
      "comment_thread": 2057,
      "VERSION": 2058,
      "answer": 2059,
      "What": 2060,
      "FunctionDef": 2061,
      "diseases": 2062,
      "handlers": 2063,
      "gmail_client": 2064,
      "GET": 2065,
      "Validation": 2066,
      "follow": 2067,
      "vector": 2068,
      "MainWindow": 2069,
      "Argument": 2070,
      "DockWidget": 2071,
      "spider_opened": 2072,
      "maxResults": 2073,
      "enumerate": 2074,
      "'),": 2075,
      "?\",": 2076,
      "Em": 2077,
      "Find": 2078,
      "Gener": 2079,
      "[^": 2080,
      "]]": 2081,
      "_with": 2082,
      "_json": 2083,
      "_items": 2084,
      "_values": 2085,
      "_fill_color": 2086,
      "cro": 2087,
      "fun": 2088,
      "ools": 2089,
      "painter": 2090,
      "indent": 2091,
      "step": 2092,
      "static": 2093,
      "dec": 2094,
      "ateg": 2095,
      "spe": 2096,
      "unsqueeze": 2097,
      "convert": 2098,
      "class_and_docstring": 2099,
      "Redis": 2100,
      "Resource": 2101,
      "iphone": 2102,
      "ups": 2103,
      "channel_": 2104,
      "Train": 2105,
      "').": 2106,
      "output_parser": 2107,
      "add_column": 2108,
      "preprocess": 2109,
      "Start": 2110,
      "slide_item": 2111,
      "basename": 2112,
      "spider_": 2113,
      "CreateActivity": 2114,
      "work": 2115,
      "input_variables": 2116,
      "playlist_item": 2117,
      "loaders": 2118,
      "numpy": 2119,
      "accept": 2120,
      "backend": 2121,
      "Enable": 2122,
      "google_calendar": 2123,
      "GoogleOAuth": 2124,
      "remove_": 2125,
      "supp": 2126,
      "disable": 2127,
      "utes": 2128,
      "save_transcript": 2129,
      "Modi": 2130,
      "_class_docstring": 2131,
      "cient": 2132,
      "circle": 2133,
      "prompts": 2134,
      "NOT_": 2135,
      "header_style": 2136,
      "process_spider_": 2137,
      "full_": 2138,
      "recent": 2139,
      "libr": 2140,
      "Height": 2141,
      "String": 2142,
      "justify": 2143,
      "word_reset": 2144,
      "fficient": 2145,
      "signals": 2146,
      "find_channel_by": 2147,
      "ustomer": 2148,
      "save_transcript_dir": 2149,
      "19": 2150,
      "<=": 2151,
      "Ad": 2152,
      "Ask": 2153,
      "Can": 2154,
      "DA": 2155,
      "Down": 2156,
      "Middleware": 2157,
      "Manager": 2158,
      "MIT": 2159,
      "PAT": 2160,
      "QListWidget": 2161,
      "QLA": 2162,
      "QColor": 2163,
      "RD": 2164,
      "ROR": 2165,
      "SQLA": 2166,
      "UEx": 2167,
      "_d": 2168,
      "_request": 2169,
      "_dict": 2170,
      "_format": 2171,
      "_ass": 2172,
      "_thread": 2173,
      "_popul": 2174,
      "cs": 2175,
      "dra": 2176,
      "fa": 2177,
      "glob": 2178,
      "ili": 2179,
      "p2": 2180,
      "sort": 2181,
      "xml": 2182,
      "enter": 2183,
      "ions": 2184,
      "ctime": 2185,
      "display": 2186,
      "_cl": 2187,
      "out_in": 2188,
      "out_cl": 2189,
      "asctime": 2190,
      "ved": 2191,
      "ational": 2192,
      "about": 2193,
      "d_data": 2194,
      "app_logger": 2195,
      "model_name": 2196,
      "need": 2197,
      "proble": 2198,
      "createAi": 2199,
      "config_from_": 2200,
      "shapesBack": 2201,
      "load_model": 2202,
      "s_docstring": 2203,
      "start_urls": 2204,
      "acy": 2205,
      "back_popul": 2206,
      "Scopes": 2207,
      "polygons": 2208,
      "exceptions": 2209,
      "img_b64": 2210,
      "predicted_": 2211,
      "ENAI": 2212,
      "train_results": 2213,
      "L_SER": 2214,
      "function_code_queue": 2215,
      "_API_KEY": 2216,
      "ed_model": 2217,
      "SegmentationClass": 2218,
      "SegmentationObject": 2219,
      "_password": 2220,
      "experiment_config": 2221,
      "DOW": 2222,
      "activation": 2223,
      "Returns": 2224,
      "latest_video": 2225,
      "topic_ass": 2226,
      "OPENAI": 2227,
      "recentFiles": 2228,
      "ility": 2229,
      "back_populates": 2230,
      "predicted_label": 2231,
      "L_SERVER": 2232,
      "\"/": 2233,
      ")]": 2234,
      "1U": 2235,
      "2rgb": 2236,
      "=['": 2237,
      "={\"": 2238,
      "Ali": 2239,
      "Audi": 2240,
      "Dg": 2241,
      "EX": 2242,
      "Generate": 2243,
      "Hint": 2244,
      "IO": 2245,
      "If": 2246,
      "Icon": 2247,
      "LC": 2248,
      "Lic": 2249,
      "OK": 2250,
      "Pixmap": 2251,
      "Qr": 2252,
      "Table": 2253,
      "Take": 2254,
      "Test": 2255,
      "UP": 2256,
      "Y_": 2257,
      "_b": 2258,
      "_len": 2259,
      "_value": 2260,
      "_features": 2261,
      "_directory": 2262,
      "aint": 2263,
      "bbox": 2264,
      "cry": 2265,
      "drop": 2266,
      "gin": 2267,
      "gith": 2268,
      "hEdge": 2269,
      "ident": 2270,
      "ircle": 2271,
      "ialize": 2272,
      "pute": 2273,
      "padding": 2274,
      "summary": 2275,
      "slider": 2276,
      "sed": 2277,
      "restore": 2278,
      "lic": 2279,
      "dial": 2280,
      "true": 2281,
      "server": 2282,
      "forme": 2283,
      "_pho": 2284,
      "spath": 2285,
      "setup": 2286,
      "image_size": 2287,
      "ride": 2288,
      "riter": 2289,
      "abspath": 2290,
      "hether": 2291,
      "may": 2292,
      "First": 2293,
      "uman": 2294,
      "board": 2295,
      "outputs": 2296,
      "_to_id": 2297,
      "agents": 2298,
      "ams": 2299,
      "------": 2300,
      "']}": 2301,
      "ERROR": 2302,
      "module_code": 2303,
      "Example": 2304,
      "playlist_id": 2305,
      "Production": 2306,
      "credentials_file": 2307,
      "GoogleDrive": 2308,
      "Pydantic": 2309,
      "prediction": 2310,
      "exec": 2311,
      "Press": 2312,
      "test_img": 2313,
      "replace": 2314,
      "Default": 2315,
      "class_name_to_id": 2316,
      "record": 2317,
      "selectAiModel": 2318,
      "host": 2319,
      "page_content": 2320,
      "unique": 2321,
      "ValueError": 2322,
      "Settings": 2323,
      "while": 2324,
      "probability": 2325,
      "Transformer": 2326,
      "Formatter": 2327,
      "elements": 2328,
      "details": 2329,
      "quote": 2330,
      "suppor": 2331,
      "PATH": 2332,
      "Align": 2333,
      "License": 2334,
      "TakeFirst": 2335,
      "crypt": 2336,
      "github": 2337,
      "_photo": 2338,
      "PydanticOutputParser": 2339,
      "\"):": 2340,
      ")[": 2341,
      ")):": 2342,
      ".',": 2343,
      "0V": 2344,
      "0DA": 2345,
      "11": 2346,
      "224": 2347,
      "30": 2348,
      "8H": 2349,
      "9k": 2350,
      "</": 2351,
      "={": 2352,
      "Area": 2353,
      "Batch": 2354,
      "Ce": 2355,
      "D0DA": 2356,
      "FI": 2357,
      "Fr": 2358,
      "G_": 2359,
      "Hj": 2360,
      "JS": 2361,
      "Mj": 2362,
      "MAI": 2363,
      "Must": 2364,
      "MY_": 2365,
      "NE": 2366,
      "Norm": 2367,
      "On": 2368,
      "Tip": 2369,
      "W2": 2370,
      "Xk": 2371,
      "][": 2372,
      "_post": 2373,
      "_ai_": 2374,
      "_mode": 2375,
      "_ERROR": 2376,
      "aw": 2377,
      "ail": 2378,
      "dim": 2379,
      "fc": 2380,
      "hi": 2381,
      "iter": 2382,
      "mg": 2383,
      "my": 2384,
      "man": 2385,
      "must": 2386,
      "nu": 2387,
      "oXk": 2388,
      "pp": 2389,
      "si": 2390,
      "sim": 2391,
      "sam": 2392,
      "tip": 2393,
      "ualization": 2394,
      "xy": 2395,
      "in_channels": 2396,
      "status": 2397,
      "standard": 2398,
      "retri": 2399,
      "imsave": 2400,
      "ary_": 2401,
      "live": 2402,
      "lies": 2403,
      "medi": 2404,
      "ally": 2405,
      "rome": 2406,
      "di8H": 2407,
      "into": 2408,
      "root": 2409,
      "out_channels": 2410,
      "_packages": 2411,
      "setText": 2412,
      "imageWidth": 2413,
      "imageHeight": 2414,
      "term": 2415,
      "\").": 2416,
      "exit": 2417,
      "video_data": 2418,
      "hegon": 2419,
      "dupli": 2420,
      "createLine": 2421,
      "upload": 2422,
      "get_youtube_client": 2423,
      "output_processor": 2424,
      "addItem": 2425,
      "all_comments": 2426,
      "REN": 2427,
      "create_engine": 2428,
      "ERNA": 2429,
      "shapes_to_": 2430,
      "langchain_open": 2431,
      "Extract": 2432,
      "found": 2433,
      "search_results": 2434,
      "start_": 2435,
      "STING": 2436,
      "Scroll": 2437,
      "existing": 2438,
      "minutes": 2439,
      "day": 2440,
      "ai_mask": 2441,
      "ai_polygon": 2442,
      "find_packages": 2443,
      "events": 2444,
      "replies": 2445,
      "selectedShapesCopy": 2446,
      "2023": 2447,
      "vocab_size": 2448,
      "TESTING": 2449,
      "celery_app": 2450,
      "OSDg": 2451,
      "archive_path": 2452,
      "ityError": 2453,
      "menus": 2454,
      "paint": 2455,
      "HEMY_": 2456,
      "kFT3BlbkFJ": 2457,
      "distance": 2458,
      "auto": 2459,
      "Visualization": 2460,
      "reak": 2461,
      "CURREN": 2462,
      "FOUND": 2463,
      "grityError": 2464,
      "Development": 2465,
      "Operational": 2466,
      "Conv2d": 2467,
      "modifiers": 2468,
      "INTERNA": 2469,
      "plt": 2470,
      "IntegrityError": 2471,
      "frRD": 2472,
      "y6oXk": 2473,
      "kernel_size": 2474,
      "transcribed_data": 2475,
      "following": 2476,
      "Modifier": 2477,
      "NOT_FOUND": 2478,
      "SQLALC": 2479,
      "L_SERVER_ERROR": 2480,
      "1Uhi": 2481,
      "QrW2": 2482,
      "dialog": 2483,
      "-------": 2484,
      "']}%": 2485,
      "9ky6oXk": 2486,
      "BatchNorm": 2487,
      "D0DAOSDg": 2488,
      "Frame": 2489,
      "Hj1Uhi": 2490,
      "Only": 2491,
      "di8HQrW2": 2492,
      "video_data_dir": 2493,
      "hegon9ky6oXk": 2494,
      "duplicate": 2495,
      "shapes_to_label": 2496,
      "langchain_openai": 2497,
      "kFT3BlbkFJD0DAOSDg": 2498,
      "OperationalError": 2499,
      "INTERNAL_SERVER_ERROR": 2500,
      "frRDdi8HQrW2": 2501,
      "SQLALCHEMY_": 2502,
      "BatchNorm2d": 2503,
      "Hj1UhikFT3BlbkFJD0DAOSDg": 2504,
      "hegon9ky6oXkHj1UhikFT3BlbkFJD0DAOSDg": 2505,
      "hegon9ky6oXkHj1UhikFT3BlbkFJD0DAOSDgfrRDdi8HQrW2": 2506,
      "''": 2507,
      "'.": 2508,
      ")}": 2509,
      "2Y": 2510,
      "299": 2511,
      "42": 2512,
      "50": 2513,
      "8W": 2514,
      ":{": 2515,
      "=\"\")": 2516,
      ">=": 2517,
      "API": 2518,
      "Async": 2519,
      "BU": 2520,
      "CO": 2521,
      "Click": 2522,
      "Callback": 2523,
      "CAC": 2524,
      "Drop": 2525,
      "GRE": 2526,
      "GLE_": 2527,
      "GOO": 2528,
      "HE_": 2529,
      "HRO": 2530,
      "My": 2531,
      "Next": 2532,
      "PL_": 2533,
      "QT": 2534,
      "Send": 2535,
      "VE_": 2536,
      "Your": 2537,
      "_for": 2538,
      "_get_": 2539,
      "_mask": 2540,
      "_true": 2541,
      "bb": 2542,
      "brow": 2543,
      "button": 2544,
      "break": 2545,
      "callback": 2546,
      "customer": 2547,
      "dT": 2548,
      "ian": 2549,
      "pu": 2550,
      "ral": 2551,
      "rate": 2552,
      "sv": 2553,
      "sive": 2554,
      "sTool": 2555,
      "using": 2556,
      "vmg": 2557,
      "was": 2558,
      "zip": 2559,
      "}\".": 2560,
      "stion": 2561,
      "oriz": 2562,
      "lections": 2563,
      "imum": 2564,
      "aro": 2565,
      "litext": 2566,
      "entaro": 2567,
      "alg": 2568,
      "local": 2569,
      "_co": 2570,
      "_create": 2571,
      "defined": 2572,
      "_png": 2573,
      "_pipeline": 2574,
      "splitext": 2575,
      "name__": 2576,
      "setValue": 2577,
      "conf": 2578,
      "contrast": 2579,
      "video_dir": 2580,
      "appname__": 2581,
      "ilon": 2582,
      "__appname__": 2583,
      "get_post": 2584,
      "Pos": 2585,
      "loads": 2586,
      "output_file": 2587,
      "timestamps": 2588,
      "BaseLLM": 2589,
      "ItemLoader": 2590,
      "flag_": 2591,
      "line_color": 2592,
      "YouTubeChannel": 2593,
      "slide_client": 2594,
      "Labels": 2595,
      "Char": 2596,
      "DataFrame": 2597,
      "ToTensor": 2598,
      "_comments_": 2599,
      "TTLE_": 2600,
      "search_request": 2601,
      "HTTPCAC": 2602,
      "widgets": 2603,
      "Scale": 2604,
      "_task": 2605,
      "save_video_dir": 2606,
      "store_true": 2607,
      "list_widget": 2608,
      "SlidesModel": 2609,
      "image_urls": 2610,
      "CommentThreadOptionalParameters": 2611,
      "CommentThreadPart": 2612,
      "CommentThreadFilter": 2613,
      "brightnessContrast": 2614,
      "larative": 2615,
      "pipelines": 2616,
      "_function_docstring": 2617,
      "TimeSt": 2618,
      "OTHRO": 2619,
      "26vmg": 2620,
      "AUTOTHRO": 2621,
      "CONCURREN": 2622,
      "field_name": 2623,
      "LabelListWidgetItem": 2624,
      "POSTGRE": 2625,
      "optimizer": 2626,
      "Handler": 2627,
      "epsilon": 2628,
      "collections": 2629,
      "examples": 2630,
      "ValidationError": 2631,
      "full_transcript": 2632,
      "OPENAI_API_KEY": 2633,
      "credentials_file_name": 2634,
      "Celery": 2635,
      "JSON": 2636,
      "8W_A": 2637,
      "GOOGLE_": 2638,
      "PL_26vmg": 2639,
      "orizont": 2640,
      "HTTPCACHE_": 2641,
      "AUTOTHROTTLE_": 2642,
      "POSTGRES_": 2643,
      "PL_26vmg8W_A": 2644,
      "\"<": 2645,
      ".\",": 2646,
      "4V": 2647,
      "=(": 2648,
      "COR": 2649,
      "Gro": 2650,
      "Lin": 2651,
      "LON": 2652,
      "LED": 2653,
      "POR": 2654,
      "PUT": 2655,
      "QT_": 2656,
      "RG": 2657,
      "Ser": 2658,
      "Size": 2659,
      "Wc": 2660,
      "Whether": 2661,
      "Z2b": 2662,
      "_module": 2663,
      "_loaders": 2664,
      "au": 2665,
      "cmd": 2666,
      "crawler": 2667,
      "dar": 2668,
      "dropout": 2669,
      "fore": 2670,
      "fMj": 2671,
      "have": 2672,
      "how": 2673,
      "ling": 2674,
      "mk": 2675,
      "mun": 2676,
      "my_": 2677,
      "window": 2678,
      "x_path": 2679,
      "zJ": 2680,
      "stant": 2681,
      "lasse": 2682,
      "lip": 2683,
      "meta": 2684,
      "cture": 2685,
      "chun": 2686,
      "_credentials": 2687,
      "_cache": 2688,
      "visit": 2689,
      "labelPreview": 2690,
      "\"\",": 2691,
      "tra": 2692,
      "its": 2693,
      "terText": 2694,
      "ision": 2695,
      "(\"%": 2696,
      "(\"--": 2697,
      "d_image": 2698,
      "class_node": 2699,
      "classifier": 2700,
      "Recur": 2701,
      "Resize": 2702,
      "comment_id": 2703,
      "\"][\"": 2704,
      "youtube_": 2705,
      ")))": 2706,
      "_save": 2707,
      "user_name": 2708,
      "uple": 2709,
      "login": 2710,
      "datefmt": 2711,
      "edge": 2712,
      "acts": 2713,
      "line_path": 2714,
      "linestrip": 2715,
      "READ": 2716,
      "default_": 2717,
      "inputs": 2718,
      "langchain_com": 2719,
      "litter": 2720,
      "new_docstring_node": 2721,
      "table_data": 2722,
      "numb": 2723,
      "acterText": 2724,
      "Anything": 2725,
      "DEBU": 2726,
      "_tmp": 2727,
      "Load": 2728,
      "Splitter": 2729,
      "ENAB": 2730,
      "make_docstring_node": 2731,
      "repaint": 2732,
      "colors": 2733,
      "SegmentAnything": 2734,
      "source_code_queue": 2735,
      "float32": 2736,
      "otherData": 2737,
      "extract_path": 2738,
      "parent": 2739,
      "position": 2740,
      "HERE": 2741,
      "documentation_style": 2742,
      "_from_points": 2743,
      "contains": 2744,
      "webdriver": 2745,
      "key_words": 2746,
      "rtx_path": 2747,
      "System": 2748,
      "ArgumentParser": 2749,
      "staticmethod": 2750,
      "preprocessor": 2751,
      "19B": 2752,
      "UExfMj": 2753,
      "G_DESCRIPTION": 2754,
      "NextImg": 2755,
      "browser": 2756,
      "siveChar": 2757,
      "4V19B": 2758,
      "Group": 2759,
      "LONG_DESCRIPTION": 2760,
      "Wc4V19B": 2761,
      "Z2bWc4V19B": 2762,
      "munity": 2763,
      "lasses": 2764,
      "RecursiveChar": 2765,
      "README": 2766,
      "langchain_community": 2767,
      "acterTextSplitter": 2768,
      "DEBUG": 2769,
      "_tmpl": 2770,
      "ENABLED": 2771,
      "UExfMjZ2bWc4V19B": 2772,
      "RecursiveCharacterTextSplitter": 2773,
      "#}": 2774,
      ".\"": 2775,
      "/\"": 2776,
      "05": 2777,
      "5d": 2778,
      "Aut": 2779,
      "AST": 2780,
      "ASE_": 2781,
      "Brightness": 2782,
      "CNN": 2783,
      "DAT": 2784,
      "Fit": 2785,
      "Hel": 2786,
      "LO": 2787,
      "Map": 2788,
      "NLO": 2789,
      "Ok": 2790,
      "Random": 2791,
      "SOR": 2792,
      "SUP": 2793,
      "Uy": 2794,
      "_key": 2795,
      "_settings": 2796,
      "_width": 2797,
      "ach": 2798,
      "bar": 2799,
      "ds": 2800,
      "ever": 2801,
      "gres": 2802,
      "human": 2803,
      "ienc": 2804,
      "middlewa": 2805,
      "ole": 2806,
      "punctu": 2807,
      "sa": 2808,
      "some": 2809,
      "tuple": 2810,
      "uff": 2811,
      "ward": 2812,
      "where": 2813,
      "y3": 2814,
      "ye": 2815,
      "{:": 2816,
      "deque": 2817,
      "aries": 2818,
      "elcom": 2819,
      "meri": 2820,
      "metrics": 2821,
      "pot": 2822,
      "poary": 2823,
      "loa": 2824,
      "loss": 2825,
      "pty": 2826,
      "rott": 2827,
      "labelFile": 2828,
      "label2rgb": 2829,
      "before": 2830,
      "tempoary": 2831,
      "file__": 2832,
      "olut": 2833,
      "setH": 2834,
      "setDir": 2835,
      "cons": 2836,
      "Review": 2837,
      "__file__": 2838,
      "\"]*": 2839,
      "profile": 2840,
      "_slide": 2841,
      "get_agent_executor": 2842,
      "moving": 2843,
      "again": 2844,
      "keyPress": 2845,
      "pytest": 2846,
      "addActions": 2847,
      "openNextImg": 2848,
      "Last": 2849,
      "time_": 2850,
      "few": 2851,
      "save_path": 2852,
      "predict": 2853,
      "ready": 2854,
      "Chain": 2855,
      "feature": 2856,
      "training": 2857,
      "comments_count": 2858,
      "module_src": 2859,
      "Dec": 2860,
      "playlist_items": 2861,
      "translate": 2862,
      "INFO": 2863,
      "keny": 2864,
      "from_template": 2865,
      "Module": 2866,
      "_project": 2867,
      "CreatePlaylistSnippet": 2868,
      "URI": 2869,
      "_prompt_template": 2870,
      "experienc": 2871,
      "hash": 2872,
      "drive_client": 2873,
      "ABASE_": 2874,
      "post_image_url": 2875,
      "ChatPromptTemplate": 2876,
      "Current": 2877,
      "ImagesPipeline": 2878,
      "Polygons": 2879,
      "Health": 2880,
      "128": 2881,
      "CURSOR": 2882,
      "_compute": 2883,
      "vertex_fill_color": 2884,
      "analysis": 2885,
      "ategory": 2886,
      "libraries": 2887,
      "find_channel_by_name": 2888,
      "Canvas": 2889,
      "shapesBackups": 2890,
      "DOWNLO": 2891,
      "bboxes": 2892,
      "GoogleDriveScopes": 2893,
      "supported": 2894,
      "numeri": 2895,
      "SQLALCHEMY_DAT": 2896,
      "TimeStamps": 2897,
      "orizontal": 2898,
      "dark_": 2899,
      "travel": 2900,
      "MapCompose": 2901,
      "middlewares": 2902,
      "punctuation": 2903,
      "elcome": 2904,
      "setDirty": 2905,
      "experiencing": 2906,
      "ABASE_URI": 2907,
      "CURSOR_": 2908,
      "SQLALCHEMY_DATABASE_URI": 2909,
      "\"\\": 2910,
      "\"%(": 2911,
      "(*": 2912,
      "Ba": 2913,
      "Blight": 2914,
      "BAD_": 2915,
      "Cre": 2916,
      "Circle": 2917,
      "Gray": 2918,
      "Npy": 2919,
      "QFileDialog": 2920,
      "Rust": 2921,
      "Slide": 2922,
      "Spot": 2923,
      "Title": 2924,
      "Writer": 2925,
      "Yout": 2926,
      "\\\"": 2927,
      "\\\"]*": 2928,
      "_video": 2929,
      "_polygon": 2930,
      "_videos": 2931,
      "a5d": 2932,
      "cnow": 2933,
      "eith": 2934,
      "far": 2935,
      "fut": 2936,
      "gth": 2937,
      "gpt": 2938,
      "gdown": 2939,
      "gray": 2940,
      "hide": 2941,
      "ible": 2942,
      "kExtract": 2943,
      "mon": 2944,
      "mps": 2945,
      "rb": 2946,
      "rapp": 2947,
      "swith": 2948,
      "ts": 2949,
      "tte": 2950,
      "welcome": 2951,
      "iner": 2952,
      "release": 2953,
      "imary_": 2954,
      "utcnow": 2955,
      "also": 2956,
      "ssian": 2957,
      "_cols": 2958,
      "out_class": 2959,
      "cesse": 2960,
      "bedd": 2961,
      "_pi": 2962,
      "_page": 2963,
      "_punctu": 2964,
      "should": 2965,
      "sper": 2966,
      "sp_file": 2967,
      "data_": 2968,
      "set_config": 2969,
      "setChecked": 2970,
      "post_comments": 2971,
      "postgres": 2972,
      "image_data": 2973,
      "image_embedding": 2974,
      "scr": 2975,
      "score": 2976,
      "noobject": 2977,
      "expi": 2978,
      "=\"[": 2979,
      "icide": 2980,
      "_file_": 2981,
      "dumps": 2982,
      "primary_": 2983,
      "maize": 2984,
      "get_docstring": 2985,
      "img_pil": 2986,
      "openai_": 2987,
      "url_pattern": 2988,
      "url_for": 2989,
      "timeout": 2990,
      "timedelta": 2991,
      "Items": 2992,
      "periment": 2993,
      "llms": 2994,
      "']['": 2995,
      "base64": 2996,
      "CreatePost": 2997,
      "aste": 2998,
      "T_REQUEST": 2999,
      "Experiment": 3000,
      "okies": 3001,
      "okoth": 3002,
      "install": 3003,
      "transforme": 3004,
      "000": 3005,
      "_names_file": 3006,
      "methods_docstring": 3007,
      "search_result": 3008,
      "sentence": 3009,
      "accur": 3010,
      "ToolRun": 3011,
      "password_reset": 3012,
      "alette": 3013,
      "remove_urls": 3014,
      "remove_punctu": 3015,
      "splits": 3016,
      "img_shape": 3017,
      "thern": 3018,
      "_playlist_item": 3019,
      "VideoResource": 3020,
      "generate_": 3021,
      "Select": 3022,
      "area": 3023,
      "test_labels": 3024,
      "list_post_": 3025,
      "prompt_format": 3026,
      "user_session": 3027,
      "user_location": 3028,
      "TEX": 3029,
      "izen": 3030,
      "images_dir": 3031,
      "ted_str": 3032,
      "process_exception": 3033,
      "Classifier": 3034,
      "analyzed_": 3035,
      "sole": 3036,
      "BoxLayout": 3037,
      "batch_size": 3038,
      "toggleDraw": 3039,
      "_dock": 3040,
      "parse_args": 3041,
      "ForToolRun": 3042,
      "NAME": 3043,
      "Update": 3044,
      "_message_prompt": 3045,
      "SelectionChanged": 3046,
      "tomli": 3047,
      "pests": 3048,
      "ProductReview": 3049,
      "QPainter": 3050,
      "Leetcode": 3051,
      "Directory": 3052,
      "CreatePlaylistItemSnippet": 3053,
      "Northern": 3054,
      "vectordb": 3055,
      "Embedd": 3056,
      "crops": 3057,
      "ManagerForToolRun": 3058,
      "draft": 3059,
      "problem": 3060,
      "topic_assign": 3061,
      "CallbackManagerForToolRun": 3062,
      "sv_file": 3063,
      "SlidesModelItem": 3064,
      "CONCURRENT_REQUEST": 3065,
      "LinkExtract": 3066,
      "aussian": 3067,
      "mkdir": 3068,
      "classifier_name": 3069,
      "profile_pi": 3070,
      "Healthy": 3071,
      "punctuation_pattern": 3072,
      "BAD_REQUEST": 3073,
      "Youtube": 3074,
      "either": 3075,
      "rapper": 3076,
      "inerary": 3077,
      "out_class_names_file": 3078,
      "icides": 3079,
      "primary_key": 3080,
      "transformed_image": 3081,
      "remove_punctuations": 3082,
      "VideoResourceId": 3083,
      "prompt_formatted_str": 3084,
      "LinkExtractor": 3085,
      "2x": 3086,
      "93": 3087,
      "Ac": 3088,
      "All": 3089,
      "Dropout": 3090,
      "DER_": 3091,
      "Horizontal": 3092,
      "Int": 3093,
      "IMA": 3094,
      "JPE": 3095,
      "Lyle": 3096,
      "Of": 3097,
      "Option": 3098,
      "PRE": 3099,
      "RNN": 3100,
      "SV": 3101,
      "SPI": 3102,
      "TR": 3103,
      "Tag": 3104,
      "USER": 3105,
      "_scale": 3106,
      "_handler": 3107,
      "_manager": 3108,
      "bn": 3109,
      "bcrypt": 3110,
      "cy": 3111,
      "cent": 3112,
      "done": 3113,
      "ffe": 3114,
      "freq": 3115,
      "gui": 3116,
      "href": 3117,
      "kentaro": 3118,
      "mi": 3119,
      "norm": 3120,
      "pip": 3121,
      "pattern": 3122,
      "ran": 3123,
      "sure": 3124,
      "tw": 3125,
      "}\"": 3126,
      "stoi": 3127,
      "ren": 3128,
      "reen": 3129,
      "order": 3130,
      "ars": 3131,
      "utral": 3132,
      "then": 3133,
      "change": 3134,
      "stract": 3135,
      "diffe": 3136,
      "loc": 3137,
      "get_class": 3138,
      "rol": 3139,
      "trip": 3140,
      "names": 3141,
      "setCheck": 3142,
      "post_photo": 3143,
      "image_file": 3144,
      "resize": 3145,
      "video_path": 3146,
      "Reset": 3147,
      "_file_path": 3148,
      "\"]),": 3149,
      "questions": 3150,
      "nect": 3151,
      "neutral": 3152,
      "able_len": 3153,
      "proper": 3154,
      "parameters": 3155,
      "get_all_": 3156,
      "get_format_instructions": 3157,
      "loadShapes": 3158,
      "channel_names": 3159,
      "bose": 3160,
      "formation": 3161,
      "verbose": 3162,
      "request_data": 3163,
      "addPoint": 3164,
      "_to_content": 3165,
      "codecs": 3166,
      "way": 3167,
      "function_name": 3168,
      "function_and_docstring": 3169,
      "formatter": 3170,
      "Configure": 3171,
      "create_table": 3172,
      "modules": 3173,
      "_to_mask": 3174,
      "s_ignore": 3175,
      "initial": 3176,
      "initialize": 3177,
      "Annot": 3178,
      "account": 3179,
      "OpenDir": 3180,
      "video_by": 3181,
      "video_transcript": 3182,
      "Flag": 3183,
      "document_loaders": 3184,
      "useful": 3185,
      "save_post_photo": 3186,
      "test_features": 3187,
      "label_flags": 3188,
      "train_features": 3189,
      "list_video_comments": 3190,
      "connection": 3191,
      "categories": 3192,
      "buil": 3193,
      "comment_text": 3194,
      "VERTEX": 3195,
      "})['": 3196,
      "Whi": 3197,
      "fit_to_content": 3198,
      "is_accept": 3199,
      "GetPosts": 3200,
      "state_dict": 3201,
      "tesIO": 3202,
      "LAY": 3203,
      "MOD": 3204,
      "MOVE_": 3205,
      "segments": 3206,
      "presentation_id": 3207,
      "clean_text": 3208,
      "tokenize": 3209,
      "register_blueprints": 3210,
      "BytesIO": 3211,
      "ActivityCreated": 3212,
      "ugh": 3213,
      "ugge": 3214,
      "undoLast": 3215,
      "functions_source_queue": 3216,
      "n_string": 3217,
      "entry_path": 3218,
      "Continue": 3219,
      "Directories": 3220,
      "cleaned_comments": 3221,
      "out_img_file": 3222,
      "db_connect": 3223,
      "db_conn_string": 3224,
      "after": 3225,
      "font_size": 3226,
      "best_models": 3227,
      "func": 3228,
      "output_parsers": 3229,
      "Testing": 3230,
      "identify": 3231,
      "license": 3232,
      "rideCursor": 3233,
      "mayContinue": 3234,
      "_ai_model": 3235,
      "number": 3236,
      "SegmentAnythingModel": 3237,
      "Okoth": 3238,
      "olution": 3239,
      "setHid": 3240,
      "movingShape": 3241,
      "future": 3242,
      "JPEG": 3243,
      "SPIDER_": 3244,
      "different": 3245,
      "property": 3246,
      "is_acceptable_len": 3247,
      "'{}": 3248,
      "3I": 3249,
      "9C": 3250,
      ">\"": 3251,
      "AU": 3252,
      "At": 3253,
      "Credentials": 3254,
      "Close": 3255,
      "DING": 3256,
      "Efficient": 3257,
      "Fb": 3258,
      "FAI": 3259,
      "F9C": 3260,
      "Hpp": 3261,
      "Is": 3262,
      "LI": 3263,
      "Mask": 3264,
      "M3I": 3265,
      "PA": 3266,
      "PY": 3267,
      "QV": 3268,
      "QLine": 3269,
      "Row": 3270,
      "Sam": 3271,
      "Signal": 3272,
      "UC": 3273,
      "Vit": 3274,
      "With": 3275,
      "Y0V": 3276,
      "_S": 3277,
      "_vi": 3278,
      "_result": 3279,
      "_msg": 3280,
      "_link": 3281,
      "_highlight": 3282,
      "a7": 3283,
      "ace": 3284,
      "bzJ": 3285,
      "cell": 3286,
      "classes": 3287,
      "df": 3288,
      "did": 3289,
      "flow": 3290,
      "funct": 3291,
      "git": 3292,
      "gener": 3293,
      "ir": 3294,
      "ito": 3295,
      "ium": 3296,
      "ifiers": 3297,
      "jhid": 3298,
      "math": 3299,
      "npy": 3300,
      "plot": 3301,
      "paste": 3302,
      "qa": 3303,
      "rnn": 3304,
      "slot": 3305,
      "t_": 3306,
      "tab": 3307,
      "tensor": 3308,
      "uate": 3309,
      "vari": 3310,
      "vrtx_path": 3311,
      "wright": 3312,
      "wkentaro": 3313,
      "x3": 3314,
      "yel": 3315,
      "secon": 3316,
      "selen": 3317,
      "information": 3318,
      "on_message": 3319,
      "atche": 3320,
      "rele": 3321,
      "redi": 3322,
      "ream": 3323,
      "reuse": 3324,
      "dep": 3325,
      "deal": 3326,
      "enum": 3327,
      "ended": 3328,
      "lize": 3329,
      "thum": 3330,
      "chart": 3331,
      "ater": 3332,
      "lock": 3333,
      "lored": 3334,
      "_core": 3335,
      "_caption": 3336,
      "vision": 3337,
      "get_project": 3338,
      "ross": 3339,
      "adapter": 3340,
      "shift": 3341,
      "dog": 3342,
      "unded": 3343,
      "older": 3344,
      "setWindow": 3345,
      "_idx": 3346,
      "exif": 3347,
      "(\".": 3348,
      "d_download": 3349,
      "classifiers": 3350,
      "Reg": 3351,
      "__tab": 3352,
      "itemadapter": 3353,
      "model_path": 3354,
      "comment_count": 3355,
      "ist_directory": 3356,
      "icLoader": 3357,
      "\"].": 3358,
      "laywright": 3359,
      "malize": 3360,
      "get_module": 3361,
      "get_channel_id": 3362,
      "Pool": 3363,
      "_dataset": 3364,
      "load_data": 3365,
      "channel_playlists": 3366,
      "bounded": 3367,
      "jsonlogger": 3368,
      "jsonify": 3369,
      "addLabel": 3370,
      "open_": 3371,
      "Shift": 3372,
      "auth_token": 3373,
      "chains": 3374,
      "chainlit": 3375,
      "lename__": 3376,
      "ItemAd": 3377,
      "function_docstring": 3378,
      "alise": 3379,
      "person": 3380,
      "slide_name": 3381,
      "LabelDialog": 3382,
      "Chrome": 3383,
      "UserMessage": 3384,
      "create_post": 3385,
      "create_all": 3386,
      "create_message": 3387,
      "labelme_": 3388,
      "input_dir": 3389,
      "messages": 3390,
      "Include": 3391,
      "astype": 3392,
      "langchain_core": 3393,
      "secrets": 3394,
      "Decoder": 3395,
      "_to_openai_": 3396,
      "checked": 3397,
      "playlists": 3398,
      "playlist_name": 3399,
      "current_app": 3400,
      "markdown": 3401,
      "template_str": 3402,
      "ound": 3403,
      "editMode": 3404,
      "backgro": 3405,
      "cated": 3406,
      "zoomWidget": 3407,
      "DELAY": 3408,
      "_tag": 3409,
      "sorted": 3410,
      "save_features_dir": 3411,
      "Videos": 3412,
      "directories": 3413,
      "generate_class_docstring": 3414,
      "popUp": 3415,
      "exeption": 3416,
      "slidesgo": 3417,
      "_product": 3418,
      "caption_image": 3419,
      "captions_file": 3420,
      "ATION": 3421,
      "first_name": 3422,
      "_source_code": 3423,
      "reply": 3424,
      "handle_": 3425,
      "cifi": 3426,
      "Slidesmodel": 3427,
      "user_email_address": 3428,
      "pydantic_object": 3429,
      "FlaskGroup": 3430,
      "CreatePlaylistSchema": 3431,
      "----------------": 3432,
      "Linear": 3433,
      "ClassDef": 3434,
      "module_path_queue": 3435,
      "calendar": 3436,
      "lblsave": 3437,
      "extractor": 3438,
      "archive_name": 3439,
      "_bytes": 3440,
      "target_": 3441,
      "img_data_to": 3442,
      "MODE": 3443,
      "persist_directory": 3444,
      "register_error": 3445,
      "containing": 3446,
      "md5": 3447,
      "ffix": 3448,
      "CreatedPost": 3449,
      "cookies": 3450,
      "_image_embedding_cache": 3451,
      "cached_download": 3452,
      "Apple": 3453,
      "Control": 3454,
      "completion": 3455,
      "Left": 3456,
      "evaluate": 3457,
      "PrevImg": 3458,
      "decoder_session": 3459,
      "GenericLoader": 3460,
      "specifi": 3461,
      "TrainConfig": 3462,
      "AskUserMessage": 3463,
      "Downloads": 3464,
      "config_from_args": 3465,
      "img_b64_to_arr": 3466,
      "execute": 3467,
      "MAIL_": 3468,
      "media": 3469,
      "2Yjhid": 3470,
      "_mask_from_points": 3471,
      "_comments_table": 3472,
      "UExfMjZ2bWc4V19BY0V": 3473,
      "05M3I": 3474,
      "Auto": 3475,
      "Uy05M3I": 3476,
      "rottle": 3477,
      "DOWNLOAD_": 3478,
      "BaHpp": 3479,
      "releases": 3480,
      "toggleDrawMode": 3481,
      "profile_picture": 3482,
      "JPEGImages": 3483,
      "EfficientSam": 3484,
      "FbF9C": 3485,
      "FAISS": 3486,
      "QLineEdit": 3487,
      "bzJBaHpp": 3488,
      "functools": 3489,
      "itos": 3490,
      "yellow": 3491,
      "selenium": 3492,
      "atched_": 3493,
      "relev": 3494,
      "redis_": 3495,
      "reuse1": 3496,
      "thumbn": 3497,
      "chartreuse1": 3498,
      "get_project_settings": 3499,
      "__tablename__": 3500,
      "get_module_source_code": 3501,
      "ItemAdapter": 3502,
      "_to_openai_function": 3503,
      "evaluate_image": 3504,
      "2YjhidS": 3505,
      "UExfMjZ2bWc4V19BY0VFbF9C": 3506,
      "Uy05M3I2YjhidS": 3507,
      "bzJBaHppUy05M3I2YjhidS": 3508,
      "UExfMjZ2bWc4V19BY0VFbF9CbzJBaHppUy05M3I2YjhidS": 3509,
      ".'": 3510,
      ".\\": 3511,
      "02x": 3512,
      "37": 3513,
      "300": 3514,
      "6c": 3515,
      "?\"": 3516,
      "Af": 3517,
      "ARE": 3518,
      "Cli": 3519,
      "Clear": 3520,
      "D_": 3521,
      "Date": 3522,
      "Dis": 3523,
      "Dou": 3524,
      "FAU": 3525,
      "Hy": 3526,
      "High": 3527,
      "Jo": 3528,
      "MIN": 3529,
      "No": 3530,
      "Node": 3531,
      "Num": 3532,
      "New": 3533,
      "Pass": 3534,
      "Place": 3535,
      "QImage": 3536,
      "We": 3537,
      "_T": 3538,
      "_date": 3539,
      "_all": 3540,
      "_metadata": 3541,
      "_links": 3542,
      "_gr": 3543,
      "b8": 3544,
      "bi": 3545,
      "but": 3546,
      "batched_": 3547,
      "cu": 3548,
      "ccess": 3549,
      "efficient": 3550,
      "fp": 3551,
      "fai": 3552,
      "fake": 3553,
      "gol": 3554,
      "know": 3555,
      "lg": 3556,
      "lat": 3557,
      "mma": 3558,
      "match": 3559,
      "pd": 3560,
      "pand": 3561,
      "rIndex": 3562,
      "ties": 3563,
      "tical": 3564,
      "upt": 3565,
      "y4": 3566,
      "}\")": 3567,
      "orage": 3568,
      "leetcode": 3569,
      "gemma": 3570,
      "()):": 3571,
      "()))": 3572,
      "thro": 3573,
      "already": 3574,
      "chars": 3575,
      "poch": 3576,
      "_cnn": 3577,
      "vious": 3578,
      "rod": 3579,
      "atable": 3580,
      "ceokoth": 3581,
      "begin": 3582,
      "doub": 3583,
      "itor": 3584,
      "fileSearch": 3585,
      "und_": 3586,
      "unic": 3587,
      "vets": 3588,
      "setC": 3589,
      "setShape": 3590,
      "setItem": 3591,
      "setTool": 3592,
      "setupt": 3593,
      "their": 3594,
      "screen": 3595,
      "videoId": 3596,
      "docstore": 3597,
      "class_source_queue": 3598,
      "ope": 3599,
      "nelly": 3600,
      "proved": 3601,
      "processe": 3602,
      "_slides": 3603,
      "get_exception": 3604,
      "log_": 3605,
      "peg": 3606,
      "boBox": 3607,
      "('.": 3608,
      "lyceokoth": 3609,
      "openPrevImg": 3610,
      "ListResponse": 3611,
      "BaseSettings": 3612,
      "function_prompt_template": 3613,
      "skimage": 3614,
      "YouTubeListResponse": 3615,
      "currIndex": 3616,
      "']:": 3617,
      "train_labels": 3618,
      "Token": 3619,
      "finally": 3620,
      "finalise": 3621,
      "language": 3622,
      "input_size": 3623,
      "Inter": 3624,
      "cannot": 3625,
      "toolbar": 3626,
      "new_tree": 3627,
      "newIcon": 3628,
      "processing": 3629,
      "editing": 3630,
      "Tools": 3631,
      "ToolBar": 3632,
      "Encoder": 3633,
      "wordReset": 3634,
      "zoomMode": 3635,
      "Scope": 3636,
      "errors": 3637,
      "likes_count": 3638,
      "GoogleSlides": 3639,
      "DEFAU": 3640,
      "locations": 3641,
      "Console": 3642,
      "torchvision": 3643,
      "img_qt": 3644,
      "min_": 3645,
      "Keep": 3646,
      "instances": 3647,
      "denrod": 3648,
      "english": 3649,
      "overrideCursor": 3650,
      "train_time": 3651,
      "storeShapes": 3652,
      "deleteFile": 3653,
      "subprocess": 3654,
      "checkable": 3655,
      "environment": 3656,
      "Vertical": 3657,
      "agent_nelly": 3658,
      "Define": 3659,
      "next_page": 3660,
      "ComboBox": 3661,
      "_context": 3662,
      "decoder_path": 3663,
      "headers": 3664,
      "bookmarks_count": 3665,
      "Calendar": 3666,
      "reviews": 3667,
      "prevPoint": 3668,
      "prevMove": 3669,
      "analyzed": 3670,
      "encoder_": 3671,
      "encoder_path": 3672,
      "fitWindow": 3673,
      "tasks": 3674,
      "img_data_to_arr": 3675,
      "PolygonMode": 3676,
      "google_search": 3677,
      "_password_": 3678,
      "Strip": 3679,
      "httpcache": 3680,
      "Rectangle": 3681,
      "pad_idx": 3682,
      "interact": 3683,
      "annotations": 3684,
      "population": 3685,
      "validate_label": 3686,
      "send_message": 3687,
      "probably": 3688,
      "src_tree": 3689,
      "Developers": 3690,
      "chat_model": 3691,
      "tuned_model": 3692,
      "contextmanager": 3693,
      "createAiMask": 3694,
      "createAiPolygonMode": 3695,
      "Audience": 3696,
      "ProductionConfig": 3697,
      "iterable": 3698,
      "termine": 3699,
      "start_requests": 3700,
      "RGB": 3701,
      "BrightnessContrast": 3702,
      "Help": 3703,
      "SUPPRE": 3704,
      "year": 3705,
      "loaded": 3706,
      "dark_gol": 3707,
      "set_configuration": 3708,
      "Accept": 3709,
      "Intended": 3710,
      "TRAC": 3711,
      "ranch": 3712,
      "setCheckState": 3713,
      "undoLastPoint": 3714,
      "background_": 3715,
      "ControlModifier": 3716,
      "UExfMjZ2bWc4V19BY0VFbF9CbzJBaHppUy05M3I2YjhidS4": 3717,
      "Clicked": 3718,
      "Disable": 3719,
      "Double": 3720,
      "PasswordReset": 3721,
      "double": 3722,
      "unicode": 3723,
      "setuptools": 3724,
      "GoogleSlidesScope": 3725,
      "DEFAUL": 3726,
      "prevMovePoint": 3727,
      "createAiMaskMode": 3728,
      "SUPPRESS": 3729,
      "dark_goldenrod": 3730,
      "!/": 3731,
      "#!/": 3732,
      "(-": 3733,
      "(['": 3734,
      "(**": 3735,
      ")\"": 3736,
      "*-": 3737,
      "*.": 3738,
      "-*-": 3739,
      "06": 3740,
      "120": 3741,
      "2gray": 3742,
      "500": 3743,
      "80": 3744,
      ">%": 3745,
      "CT": 3746,
      "CRE": 3747,
      "Center": 3748,
      "Category": 3749,
      "Eng": 3750,
      "Fe": 3751,
      "IE": 3752,
      "Ken": 3753,
      "NG": 3754,
      "Net": 3755,
      "Over": 3756,
      "OUT": 3757,
      "OAUT": 3758,
      "Pure": 3759,
      "Pest": 3760,
      "PER_": 3761,
      "Qu": 3762,
      "QWidget": 3763,
      "QDockWidget": 3764,
      "Right": 3765,
      "Role": 3766,
      "Sent": 3767,
      "ULE": 3768,
      "WOR": 3769,
      "Water": 3770,
      "XX": 3771,
      "_string": 3772,
      "_time": 3773,
      "_utils": 3774,
      "_posts": 3775,
      "_drawing": 3776,
      "_ignore": 3777,
      "_layers": 3778,
      "_google_": 3779,
      "_tags": 3780,
      "_chat_": 3781,
      "_selectAiModel": 3782,
      "_methods_docstring": 3783,
      "_lock": 3784,
      "_chars": 3785,
      "_background_": 3786,
      "ails": 3787,
      "alar": 3788,
      "bin": 3789,
      "cstr": 3790,
      "cul": 3791,
      "case": 3792,
      "epoch": 3793,
      "fd": 3794,
      "fy": 3795,
      "hai": 3796,
      "holder": 3797,
      "jpeg": 3798,
      "lst": 3799,
      "men": 3800,
      "mory": 3801,
      "m_agent": 3802,
      "nargs": 3803,
      "ob": 3804,
      "ose": 3805,
      "ores": 3806,
      "oLoader": 3807,
      "pas": 3808,
      "publish": 3809,
      "packages": 3810,
      "r6": 3811,
      "sche": 3812,
      "ten": 3813,
      "wt": 3814,
      "want": 3815,
      "watch": 3816,
      "well": 3817,
      "x4": 3818,
      "xPool": 3819,
      "yload": 3820,
      "yes": 3821,
      "zer": 3822,
      "}:{": 3823,
      "separ": 3824,
      "in_file": 3825,
      "infe": 3826,
      "inline": 3827,
      "inception": 3828,
      "on_chat_": 3829,
      "stat": 3830,
      "stop": 3831,
      "depen": 3832,
      "develop": 3833,
      "determine": 3834,
      "orig": 3835,
      "orial": 3836,
      "imgs": 3837,
      "labe": 3838,
      "lable": 3839,
      "utorial": 3840,
      "ential": 3841,
      "any": 3842,
      "fir": 3843,
      "memory": 3844,
      "alled": 3845,
      "roma": 3846,
      "fromarray": 3847,
      "_click": 3848,
      "getLog": 3849,
      "adjust": 3850,
      "out_path": 3851,
      "outOf": 3852,
      "forward": 3853,
      "shot": 3854,
      "space": 3855,
      "ition": 3856,
      "itinerary": 3857,
      "fileDialog": 3858,
      "setWidget": 3859,
      "setCurrent": 3860,
      "image_pil": 3861,
      "shape_to_mask": 3862,
      "doc_str": 3863,
      "Recent": 3864,
      "iness": 3865,
      "Seq": 3866,
      "istory": 3867,
      "health": 3868,
      "createPoint": 3869,
      "createCircle": 3870,
      "createRectangle": 3871,
      "get_img_": 3872,
      "most": 3873,
      "loadFile": 3874,
      "vals": 3875,
      "ized": 3876,
      "('/": 3877,
      "date_create": 3878,
      "aggro": 3879,
      "keywords": 3880,
      "keyClick": 3881,
      "edModel": 3882,
      "opened": 3883,
      "of_slides": 3884,
      "scriptions": 3885,
      "chain_type": 3886,
      "_tool": 3887,
      "_to_data": 3888,
      "urls": 3889,
      "urlparse": 3890,
      "fe_": 3891,
      "transcriptions": 3892,
      "ItemBy": 3893,
      "function_doc": 3894,
      "PostLike": 3895,
      "PostSchema": 3896,
      "amp": 3897,
      "docstrings": 3898,
      "lines": 3899,
      "RECT": 3900,
      "default_config": 3901,
      "selected_": 3902,
      "['\\\"]*": 3903,
      "Dataclass": 3904,
      "create_like": 3905,
      "Tower": 3906,
      "author_email": 3907,
      "bytes": 3908,
      "SearchTool": 3909,
      "SearchFilter": 3910,
      "\".',": 3911,
      "input_processor": 3912,
      "Comments": 3913,
      "There": 3914,
      "module_tree": 3915,
      "Indepen": 3916,
      "T_W": 3917,
      "load_more": 3918,
      "Exe": 3919,
      "Delete": 3920,
      "transformer": 3921,
      "maximum": 3922,
      "flagsLayout": 3923,
      "drawVertex": 3924,
      "linalg": 3925,
      "Getting": 3926,
      "_params": 3927,
      "news": 3928,
      "process_item": 3929,
      "acy_": 3930,
      "MessagePromptTemplate": 3931,
      "Enter": 3932,
      "errorMessage": 3933,
      "GoogleDirectories": 3934,
      "removePoint": 3935,
      "what": 3936,
      "html_pattern": 3937,
      "html_tags": 3938,
      "OpenAIEmbedd": 3939,
      "OpenAIWhi": 3940,
      "youtube_client_object": 3941,
      "embedding_size": 3942,
      "ixPath": 3943,
      "find_video_by": 3944,
      "arest": 3945,
      "label_file_with": 3946,
      "test_examples": 3947,
      "ENT": 3948,
      "ometry": 3949,
      "dataset_metadata": 3950,
      "findItemBy": 3951,
      "fill_drawing": 3952,
      "num_of_slides": 3953,
      "run_manager": 3954,
      "random_state": 3955,
      "comment_iterator": 3956,
      "Question": 3957,
      "Comple": 3958,
      "_v1": 3959,
      "quit": 3960,
      "threading": 3961,
      "_contrast": 3962,
      ".').": 3963,
      "ED_": 3964,
      "MappedAs": 3965,
      "When": 3966,
      "called": 3967,
      "other_data": 3968,
      "rgb2gray": 3969,
      "MaxPool": 3970,
      "is_text": 3971,
      "payload": 3972,
      "_content_type": 3973,
      "KeyComment": 3974,
      "HEAD": 3975,
      "configurations": 3976,
      "S_PER_": 3977,
      "b64encode": 3978,
      "scrollRequest": 3979,
      "websi": 3980,
      "functions_source": 3981,
      "interse": 3982,
      "SelectedShape": 3983,
      "Namespace": 3984,
      "colored": 3985,
      "suffix": 3986,
      "src_code": 3987,
      "overwrite_function_docstring": 3988,
      "Operating": 3989,
      "completer": 3990,
      "Convolution": 3991,
      "tune": 3992,
      "usr": 3993,
      "analysis_text": 3994,
      "long_description_content_type": 3995,
      "Normalize": 3996,
      "plant": 3997,
      "selectionChanged": 3998,
      "comment_threads": 3999,
      "remove_unicode": 4000,
      "remove_html_tags": 4001,
      "process_spider_input": 4002,
      "AudioLoader": 4003,
      "drop_all": 4004,
      "Alignment": 4005,
      "FIT_W": 4006,
      "createLineMode": 4007,
      "createLineStrip": 4008,
      "_coord": 4009,
      "PosixPath": 4010,
      "flag_widget": 4011,
      "larativeBase": 4012,
      "CORRECT": 4013,
      "safe_": 4014,
      "DeclarativeBase": 4015,
      "numeric": 4016,
      "farm_agent": 4017,
      "welcome_text": 4018,
      "sperParser": 4019,
      "ExperimentConfig": 4020,
      "QPainterPath": 4021,
      "CONCURRENT_REQUESTS_PER_": 4022,
      "YoutubeAudioLoader": 4023,
      "account_": 4024,
      "MODULE": 4025,
      "SPIDER_MODULE": 4026,
      "PY2": 4027,
      "boundedMove": 4028,
      "directories_ignore": 4029,
      "MODEL": 4030,
      "register_error_handler": 4031,
      "thumbnail": 4032,
      "Join": 4033,
      "NodeTransformer": 4034,
      "Numpy": 4035,
      "Placeholder": 4036,
      "_grad": 4037,
      "through": 4038,
      "screenshot": 4039,
      "DoubleClicked": 4040,
      "double_click": 4041,
      "CREAT": 4042,
      "OUTPUT": 4043,
      "OAUTH": 4044,
      "PurePosixPath": 4045,
      "Pests": 4046,
      "_selectAiModelComboBox": 4047,
      "hair": 4048,
      "mented": 4049,
      "infected": 4050,
      "on_chat_start": 4051,
      "getLogger": 4052,
      "outOfPixmap": 4053,
      "createPointMode": 4054,
      "createCircleMode": 4055,
      "createRectangleMode": 4056,
      "get_img_and_": 4057,
      "date_created": 4058,
      "['\\\"]*|": 4059,
      "Independent": 4060,
      "OpenAIEmbeddings": 4061,
      "OpenAIWhisperParser": 4062,
      "find_video_by_id": 4063,
      "label_file_without_path": 4064,
      "MappedAsDataclass": 4065,
      "MaxPool2d": 4066,
      "website": 4067,
      "remove_unicode_chars": 4068,
      "createLineStripMode": 4069,
      "\"*.": 4070,
      ")['": 4071,
      "/.": 4072,
      "1c": 4073,
      "1d": 4074,
      "2A": 4075,
      "35": 4076,
      "8a7": 4077,
      "Al": 4078,
      "Ar": 4079,
      "AL_": 4080,
      "BIN": 4081,
      "Det": 4082,
      "Dail": 4083,
      "Esc": 4084,
      "Found": 4085,
      "Gaussian": 4086,
      "HO": 4087,
      "Htt": 4088,
      "History": 4089,
      "I0": 4090,
      "ML": 4091,
      "M_": 4092,
      "Met": 4093,
      "NS": 4094,
      "QDialog": 4095,
      "RB": 4096,
      "Rem": 4097,
      "SW": 4098,
      "Su": 4099,
      "ST_": 4100,
      "TW": 4101,
      "Tel": 4102,
      "UB": 4103,
      "Ug": 4104,
      "]),": 4105,
      "_re": 4106,
      "_th": 4107,
      "_raw": 4108,
      "_mar": 4109,
      "_group_id": 4110,
      "_brightness": 4111,
      "_edge": 4112,
      "_extractor": 4113,
      "_ob": 4114,
      "a0": 4115,
      "ba": 4116,
      "bors": 4117,
      "bstract": 4118,
      "cx": 4119,
      "cel": 4120,
      "cover": 4121,
      "cpu": 4122,
      "dlg": 4123,
      "gate": 4124,
      "h1": 4125,
      "hex": 4126,
      "hand": 4127,
      "hour": 4128,
      "iled": 4129,
      "j3": 4130,
      "kit": 4131,
      "k_size": 4132,
      "lu": 4133,
      "mapping": 4134,
      "nQ": 4135,
      "p3": 4136,
      "pError": 4137,
      "package": 4138,
      "qd": 4139,
      "rat": 4140,
      "rid": 4141,
      "sm": 4142,
      "same": 4143,
      "sum": 4144,
      "tz": 4145,
      "tutorial": 4146,
      "uint": 4147,
      "zone": 4148,
      "}')": 4149,
      "remo": 4150,
      "research_": 4151,
      "dev": 4152,
      "orith": 4153,
      "orical": 4154,
      "imator": 4155,
      "lap": 4156,
      "lares": 4157,
      "util": 4158,
      "anic": 4159,
      "an_channels": 4160,
      "ural": 4161,
      "idx": 4162,
      "from_c": 4163,
      "tolist": 4164,
      "label_png": 4165,
      "ash": 4166,
      "ason": 4167,
      "best": 4168,
      "_part": 4169,
      "itanic": 4170,
      "files_ignore": 4171,
      "vered": 4172,
      "returned": 4173,
      "set_": 4174,
      "setFlags": 4175,
      "setAlignment": 4176,
      "thedocs": 4177,
      "image_id": 4178,
      "ull": 4179,
      "textRect": 4180,
      "ders": 4181,
      "ily": 4182,
      "classmethod": 4183,
      "Ref": 4184,
      "Repe": 4185,
      "Retri": 4186,
      "__version": 4187,
      "__future": 4188,
      "dirpath": 4189,
      "model_names": 4190,
      "Sequ": 4191,
      "question": 4192,
      "_sugge": 4193,
      "created": 4194,
      "create_slide": 4195,
      "create_comments_table": 4196,
      "get_posts": 4197,
      "print_videos": 4198,
      "script": 4199,
      "ped": 4200,
      "aging": 4201,
      "')[-": 4202,
      "Show": 4203,
      "Should": 4204,
      "activi": 4205,
      "timeError": 4206,
      "saveAs": 4207,
      "saveAuto": 4208,
      "BaseLanguage": 4209,
      "Imple": 4210,
      "flag": 4211,
      "liked": 4212,
      "Storage": 4213,
      "perparameters": 4214,
      "slide_tag": 4215,
      "LabelQLineEdit": 4216,
      "types": 4217,
      "comp": 4218,
      "readthedocs": 4219,
      "byte": 4220,
      "features_co": 4221,
      "Init": 4222,
      "load_item": 4223,
      "Expi": 4224,
      "Description": 4225,
      "transpose": 4226,
      "_imageData": 4227,
      "current_": 4228,
      "embed": 4229,
      "objectId": 4230,
      "draw_": 4231,
      "Metrics": 4232,
      "moveBy": 4233,
      "selectedVertex": 4234,
      "Process": 4235,
      "edit_group_id": 4236,
      "take": 4237,
      "link_extractor": 4238,
      "zoom_values": 4239,
      "zoom_value": 4240,
      "add_video": 4241,
      "disabled": 4242,
      "generate_function_docstring": 4243,
      "from_messages": 4244,
      "slides_count": 4245,
      "daily": 4246,
      "ENT_": 4247,
      "overlap": 4248,
      "_source_": 4249,
      "runtime": 4250,
      "bottom": 4251,
      "chatgpt": 4252,
      "Slidesgo": 4253,
      "pydantic_v1": 4254,
      "region": 4255,
      "ighbors": 4256,
      "OSI": 4257,
      "has_": 4258,
      "struct": 4259,
      "EDIT": 4260,
      "hiddens": 4261,
      "fully": 4262,
      "prevhShape": 4263,
      "prevhVertex": 4264,
      "SpiderMiddleware": 4265,
      "fitWidth": 4266,
      "page_id": 4267,
      "required": 4268,
      "task_d": 4269,
      "laces": 4270,
      "Saved": 4271,
      "segment_str": 4272,
      "google_drive": 4273,
      "autoth": 4274,
      "lickr": 4275,
      "asyn": 4276,
      "_password_reset": 4277,
      "reshold": 4278,
      "Visible": 4279,
      "REQUEST_": 4280,
      "goes": 4281,
      "onnxruntime": 4282,
      "trib": 4283,
      "authenticate_google_": 4284,
      "interfa": 4285,
      "which": 4286,
      "MAN": 4287,
      "SSWOR": 4288,
      "Validator": 4289,
      "long": 4290,
      "validate_item": 4291,
      "Backround": 4292,
      "sitive": 4293,
      "QPalette": 4294,
      "last_name": 4295,
      "lastOpenDir": 4296,
      "new_width": 4297,
      "new_height": 4298,
      "new_module_code": 4299,
      "App": 4300,
      "Approved": 4301,
      "RuntimeError": 4302,
      "detailed": 4303,
      "quotes": 4304,
      "highlightClear": 4305,
      "k_overlap": 4306,
      "modify": 4307,
      "NotImple": 4308,
      "key_like": 4309,
      "FileDialogPreview": 4310,
      "LLMChain": 4311,
      "PrevScale": 4312,
      "creation": 4313,
      "plan": 4314,
      "partial_variables": 4315,
      "Empty": 4316,
      "cross": 4317,
      "declarative": 4318,
      "declares": 4319,
      "process_spider_output": 4320,
      "sort_labels": 4321,
      "restoreCursor": 4322,
      "exec_": 4323,
      "Defaults": 4324,
      "retriever": 4325,
      "termcolor": 4326,
      "start_time": 4327,
      "DevelopmentConfig": 4328,
      "Dropped": 4329,
      "QT5": 4330,
      "}\".')": 4331,
      "algorith": 4332,
      "flag_dock": 4333,
      "brightnessContrast_values": 4334,
      "PORT": 4335,
      "QT_BIN": 4336,
      "Series": 4337,
      "SizeHint": 4338,
      "chunk_size": 4339,
      "chunk_overlap": 4340,
      "time_min": 4341,
      "kenyan_channels": 4342,
      "Creating": 4343,
      "hideBackround": 4344,
      "month": 4345,
      "accuracy": 4346,
      "list_post_likes": 4347,
      "freq_th": 4348,
      "mirror": 4349,
      "Annotations": 4350,
      "TestingConfig": 4351,
      "setHiding": 4352,
      "PASSWOR": 4353,
      "QVBoxLayout": 4354,
      "various": 4355,
      "_product_": 4356,
      "relevant": 4357,
      "Highlight": 4358,
      "cuda": 4359,
      "setToolTip": 4360,
      "encoder_session": 4361,
      "Sentiment": 4362,
      "passed": 4363,
      "published_": 4364,
      "labelf": 4365,
      "('/')[-": 4366,
      "selected_shapes": 4367,
      "mentedError": 4368,
      "get_img_and_data": 4369,
      "Daily": 4370,
      "HttpError": 4371,
      "Telnet": 4372,
      "handling": 4373,
      "uint8": 4374,
      "remote": 4375,
      "from_crawler": 4376,
      "Repeatable": 4377,
      "__version__": 4378,
      "__future__": 4379,
      "Sequential": 4380,
      "_suggestion": 4381,
      "activities": 4382,
      "BaseLanguageModel": 4383,
      "Expired": 4384,
      "task_done": 4385,
      "autothrottle": 4386,
      "authenticate_google_server": 4387,
      "interface": 4388,
      "NotImplementedError": 4389,
      "QT_BINDING": 4390,
      "freq_threshold": 4391,
      "\"{}": 4392,
      "'/": 4393,
      "'{": 4394,
      "'):": 4395,
      "'',": 4396,
      "(\",": 4397,
      ")')": 4398,
      "+|": 4399,
      ".%": 4400,
      "03": 4401,
      "04": 4402,
      "020": 4403,
      "0fd": 4404,
      "13": 4405,
      "1A": 4406,
      "1ce": 4407,
      "2N": 4408,
      "200": 4409,
      "31ce": 4410,
      "43": 4411,
      "4fe": 4412,
      "60": 4413,
      "9a5d": 4414,
      ":]": 4415,
      "=-": 4416,
      "?://": 4417,
      "Aa": 4418,
      "Add": 4419,
      "Bel": 4420,
      "CH": 4421,
      "Co": 4422,
      "Ctr": 4423,
      "Craw": 4424,
      "Crop": 4425,
      "CLI": 4426,
      "Cross": 4427,
      "Dup": 4428,
      "Dont": 4429,
      "DLE": 4430,
      "EE": 4431,
      "Fet": 4432,
      "IA": 4433,
      "Ig": 4434,
      "It": 4435,
      "K_": 4436,
      "Live": 4437,
      "LOR": 4438,
      "MT": 4439,
      "MU": 4440,
      "Match": 4441,
      "MID": 4442,
      "Null": 4443,
      "PL": 4444,
      "Pa": 4445,
      "PNG": 4446,
      "QMessage": 4447,
      "Rain": 4448,
      "Slot": 4449,
      "Tun": 4450,
      "Top": 4451,
      "Tell": 4452,
      "UI": 4453,
      "UN": 4454,
      "UAL_": 4455,
      "Wa": 4456,
      "Wrapper": 4457,
      "WARE": 4458,
      "Zip": 4459,
      "ZOO": 4460,
      "\\.\\": 4461,
      "]\"": 4462,
      "]))": 4463,
      "_list": 4464,
      "_no": 4465,
      "_output": 4466,
      "_input": 4467,
      "_viz": 4468,
      "_start": 4469,
      "_new": 4470,
      "_label_": 4471,
      "__class": 4472,
      "_15": 4473,
      "_level": 4474,
      "_archive": 4475,
      "_backend": 4476,
      "_replies": 4477,
      "_auth_token": 4478,
      "ax": 4479,
      "ags": 4480,
      "audi": 4481,
      "bt": 4482,
      "bla": 4483,
      "cial": 4484,
      "coc": 4485,
      "c20": 4486,
      "crop": 4487,
      "city": 4488,
      "center": 4489,
      "cision": 4490,
      "cach": 4491,
      "cEE": 4492,
      "espe": 4493,
      "eved": 4494,
      "ftime": 4495,
      "facts": 4496,
      "gicides": 4497,
      "h2": 4498,
      "hz": 4499,
      "iS": 4500,
      "ile": 4501,
      "ilar": 4502,
      "ks_": 4503,
      "lla": 4504,
      "lxml": 4505,
      "manage": 4506,
      "nal": 4507,
      "o2": 4508,
      "otools": 4509,
      "pri": 4510,
      "playwright": 4511,
      "qlabel": 4512,
      "qimage": 4513,
      "ration": 4514,
      "sample": 4515,
      "tur": 4516,
      "ual": 4517,
      "ures": 4518,
      "uck": 4519,
      "v1": 4520,
      "venv": 4521,
      "vacy": 4522,
      "wise": 4523,
      "wrapper": 4524,
      "x_": 4525,
      "xed": 4526,
      "xmax": 4527,
      "xmin": 4528,
      "ya": 4529,
      "ymax": 4530,
      "ymin": 4531,
      "}:": 4532,
      "}{:": 4533,
      "see": 4534,
      "ses": 4535,
      "invalid": 4536,
      "onNew": 4537,
      "std": 4538,
      "stor": 4539,
      "stores": 4540,
      "stash": 4541,
      "redirect": 4542,
      "dest": 4543,
      "depre": 4544,
      "end_": 4545,
      "enable": 4546,
      "les": 4547,
      "lex": 4548,
      "leaf": 4549,
      "legate": 4550,
      "licate": 4551,
      "ann": 4552,
      "apc20": 4553,
      "ssiness": 4554,
      "chrome": 4555,
      "portError": 4556,
      "pos_": 4557,
      "strftime": 4558,
      "mention": 4559,
      "getall": 4560,
      "get_playlist": 4561,
      "ropy": 4562,
      "roker": 4563,
      "labelDialog": 4564,
      "\"\":": 4565,
      "share": 4566,
      "shlex": 4567,
      "file_": 4568,
      "fileList": 4569,
      "file_src": 4570,
      "file_dock": 4571,
      "unparse": 4572,
      "setting": 4573,
      "they": 4574,
      "ques_": 4575,
      "conv": 4576,
      "image_path": 4577,
      "image_module": 4578,
      "\")),": 4579,
      "shape_dock": 4580,
      "empty": 4581,
      "isfile": 4582,
      "isNull": 4583,
      "expe": 4584,
      "gslide": 4585,
      "(\"\\": 4586,
      "(\"################": 4587,
      "class_docstring": 4588,
      "class_tree": 4589,
      "Qt5": 4590,
      "itemSelectionChanged": 4591,
      "itemDoubleClicked": 4592,
      "=\".": 4593,
      "point_size": 4594,
      "istent": 4595,
      "[\"<": 4596,
      "))[": 4597,
      "neg_": 4598,
      "length": 4599,
      "layer": 4600,
      "not_": 4601,
      "_snippet": 4602,
      "param": 4603,
      "created_": 4604,
      "maizen": 4605,
      "get_user": 4606,
      "get_loader": 4607,
      "get_video_": 4608,
      "get_gmail_client": 4609,
      "get_channel_": 4610,
      "Fixed": 4611,
      "print_function": 4612,
      "mouse": 4613,
      "channelId": 4614,
      "config_name": 4615,
      "configure": 4616,
      "Trapping": 4617,
      "pyproject": 4618,
      "pycoc": 4619,
      "opening": 4620,
      "Shortcut": 4621,
      "actor": 4622,
      "feren": 4623,
      "save_data": 4624,
      "saveFile": 4625,
      "ListType": 4626,
      "previous": 4627,
      "precision": 4628,
      "BaseTool": 4629,
      "oryks_": 4630,
      "Post_": 4631,
      "ImportError": 4632,
      "search_schema": 4633,
      "search_part": 4634,
      "german": 4635,
      "endor": 4636,
      "endswith": 4637,
      "format_file": 4638,
      "Standard": 4639,
      "Stream": 4640,
      "comma": 4641,
      "read_src": 4642,
      "Chroma": 4643,
      "marked": 4644,
      "UserAgent": 4645,
      "UserRole": 4646,
      "ToRNN": 4647,
      "Creates": 4648,
      "CreateStatus": 4649,
      "final": 4650,
      "\"./": 4651,
      "input_": 4652,
      "antized": 4653,
      "CommentSchema": 4654,
      "CommentsTool": 4655,
      "_comment_replies": 4656,
      "T_PATH": 4657,
      "load_checkpoint": 4658,
      "load_start_urls": 4659,
      "Exp": 4660,
      "parse_src": 4661,
      "Delegate": 4662,
      "playlist_schema": 4663,
      "s_dict": 4664,
      "installed": 4665,
      "occur": 4666,
      "currentItem": 4667,
      "Analy": 4668,
      "startswith": 4669,
      "STAR": 4670,
      "templates": 4671,
      "selectedItems": 4672,
      "models_dir": 4673,
      "editDescription": 4674,
      "backups": 4675,
      "credentials_path": 4676,
      "video_str": 4677,
      "video_search": 4678,
      "zoomRequest": 4679,
      "canvas_width": 4680,
      "Scalar": 4681,
      "GoogleCalendar": 4682,
      "helps": 4683,
      "_docstrings": 4684,
      "Constant": 4685,
      "atchpad": 4686,
      "sizeHint": 4687,
      "split_": 4688,
      "Boo": 4689,
      "Bo2A": 4690,
      "PlaylistItem": 4691,
      "PlaylistsTool": 4692,
      "save_checkpoint": 4693,
      "instance_names": 4694,
      "instance_ids": 4695,
      "encies": 4696,
      "predicted": 4697,
      "learning": 4698,
      "arguments": 4699,
      "test_MainWindow": 4700,
      "raised": 4701,
      "raises": 4702,
      "1024": 4703,
      "make_response": 4704,
      "label_viz": 4705,
      "label_dock": 4706,
      "train_model": 4707,
      "drawingPolygon": 4708,
      "delete_post": 4709,
      "list_user_": 4710,
      "list_post_comments": 4711,
      "connected": 4712,
      "check_password": 4713,
      "bussiness": 4714,
      "num_backups": 4715,
      "chat_prompt": 4716,
      "150": 4717,
      "writer": 4718,
      "optional_params": 4719,
      "clsv": 4720,
      "cls_name": 4721,
      "_vendor": 4722,
      "g_msg": 4723,
      "quantized": 4724,
      "URL": 4725,
      "DocString": 4726,
      "hasattr": 4727,
      "noreRequest": 4728,
      "sentiment_chain": 4729,
      "process_request": 4730,
      "commitizen": 4731,
      "QApp": 4732,
      "prevhEdge": 4733,
      "324fe": 4734,
      "ABAg": 4735,
      "lbl_viz": 4736,
      "select_fill_color": 4737,
      "OutputDir": 4738,
      "extract_archive": 4739,
      "provide": 4740,
      "rgb_by": 4741,
      "Keyboard": 4742,
      "states": 4743,
      "resetState": 4744,
      "testing": 4745,
      "test_data": 4746,
      "insv": 4747,
      "doesn": 4748,
      "google_oauth": 4749,
      "toggle_": 4750,
      "_shape_color": 4751,
      "LabelFileError": 4752,
      "scrollArea": 4753,
      "webkit": 4754,
      "RectFrom": 4755,
      "Unchecked": 4756,
      "clearSelection": 4757,
      "ColumnTransformer": 4758,
      "Login": 4759,
      "annotated": 4760,
      "l_Bo2A": 4761,
      "send_email": 4762,
      "send_email_": 4763,
      "SelectionSlot": 4764,
      "negative_parser": 4765,
      "activated": 4766,
      "16_ob": 4767,
      "folder": 4768,
      "toml": 4769,
      "pesticides": 4770,
      "2b9a5d": 4771,
      "success": 4772,
      "positive_parser": 4773,
      "Format": 4774,
      "latest_videos": 4775,
      "complete": 4776,
      "Key_Enter": 4777,
      "targets": 4778,
      "26a5d": 4779,
      "ZoomWidget": 4780,
      "25506": 4781,
      "NotFound": 4782,
      "Integer": 4783,
      "system_template": 4784,
      "system_message_prompt": 4785,
      "MaizeNet": 4786,
      "Drawing": 4787,
      "evalQA": 4788,
      "allowed": 4789,
      "contextlib": 4790,
      "vectorstores": 4791,
      "ArgumentDefaults": 4792,
      "[^\\": 4793,
      "fungicides": 4794,
      "iphone_15": 4795,
      "workers": 4796,
      "library": 4797,
      "find_channel_by_id": 4798,
      "drag": 4799,
      "out_ins_file": 4800,
      "out_insp_file": 4801,
      "out_insv_file": 4802,
      "out_cls_file": 4803,
      "out_clsp_file": 4804,
      "out_clsv_file": 4805,
      "problems": 4806,
      "config_from_yaml": 4807,
      "SegmentationClassVisualization": 4808,
      "SegmentationClassNpy": 4809,
      "SegmentationObjectVisualization": 4810,
      "SegmentationObjectNpy": 4811,
      "activation_data": 4812,
      "topic_assg_msg": 4813,
      "EXTRAC": 4814,
      "_length": 4815,
      "identifier": 4816,
      "slider_contrast": 4817,
      "slider_brightness": 4818,
      "fc6c": 4819,
      "sam_vi": 4820,
      "ScrollBar": 4821,
      "202304": 4822,
      "APIWrapper": 4823,
      "AsyncCallbackManagerForToolRun": 4824,
      "COLOR": 4825,
      "_get_rgb_by": 4826,
      "PL_26vmg8W_Af": 4827,
      "PL_26vmg8W_AcEE": 4828,
      "CORS": 4829,
      "QT_VERSION": 4830,
      "Service": 4831,
      "lipse": 4832,
      "login_data": 4833,
      "default_output_dir": 4834,
      "browser_context": 4835,
      "CNNToRNN": 4836,
      "every": 4837,
      "human_template": 4838,
      "human_message_prompt": 4839,
      "consistent": 4840,
      "keyPressEvent": 4841,
      "time_max": 4842,
      "predict_mask_from_points": 4843,
      "kenya": 4844,
      "hash_password": 4845,
      "data_analysis": 4846,
      "postgres_": 4847,
      "scratchpad": 4848,
      "expiration": 4849,
      "UpdatePost": 4850,
      "topic_assign_tmpl": 4851,
      "93r6": 4852,
      "changeOutputDir": 4853,
      "get_all_modules": 4854,
      "formatter_class": 4855,
      "MOVE_VERTEX": 4856,
      "SegmentAnythingModelVit": 4857,
      "'{}'": 4858,
      "df03": 4859,
      "qa_chain": 4860,
      "tensorboard": 4861,
      "seconds": 4862,
      "setWindowTitle": 4863,
      "Register": 4864,
      "ShiftModifier": 4865,
      "specific": 4866,
      "DOWNLOAD_PATH": 4867,
      "37324fe": 4868,
      "After": 4869,
      "b8bu": 4870,
      "latten": 4871,
      "Interview": 4872,
      "min_distance": 4873,
      "analyzed_comments": 4874,
      "_password_hash": 4875,
      "BrightnessContrastDialog": 4876,
      "HelpFormatter": 4877,
      "DEFAULT_": 4878,
      "Kenya": 4879,
      "ailsTool": 4880,
      "zeros": 4881,
      "separated": 4882,
      "stops": 4883,
      "Executor": 4884,
      "tune_": 4885,
      "numericalize": 4886,
      "account_activation": 4887,
      "boundedMoveShapes": 4888,
      "thumbnail_key": 4889,
      "1c0fd": 4890,
      "8a726a5d": 4891,
      "DetailsTool": 4892,
      "RBF": 4893,
      "_marques_": 4894,
      "ba25506": 4895,
      "RetrievalQA": 4896,
      "MANUAL_": 4897,
      "crosshair": 4898,
      "labelfile": 4899,
      "(\",\")": 4900,
      "0208a726a5d": 4901,
      "31cefc6c": 4902,
      "?://\\": 4903,
      "AaABAg": 4904,
      "Below": 4905,
      "Ctrl": 4906,
      "CLIENT_": 4907,
      "Duplicate": 4908,
      "DLEWARE": 4909,
      "Fetch": 4910,
      "IgnoreRequest": 4911,
      "MIDDLEWARE": 4912,
      "QMessageBox": 4913,
      "ZipFile": 4914,
      "ZOOM": 4915,
      "_noSelectionSlot": 4916,
      "__class__": 4917,
      "audio": 4918,
      "cially": 4919,
      "especially": 4920,
      "hziS": 4921,
      "llama": 4922,
      "deprecated": 4923,
      "apc2016_ob": 4924,
      "pos_chain": 4925,
      "roker_url": 4926,
      "shared": 4927,
      "fileListLayout": 4928,
      "gslide_client": 4929,
      "neg_chain": 4930,
      "maizenet": 4931,
      "pycocotools": 4932,
      "ference": 4933,
      "oryks_google_oauth": 4934,
      "StreamHandler": 4935,
      "START_": 4936,
      "ScalarListType": 4937,
      "DocStringWriter": 4938,
      "QApplication": 4939,
      "RectFromLine": 4940,
      "l_Bo2AhziS": 4941,
      "2b9a5d0208a726a5d": 4942,
      "NotFoundError": 4943,
      "ArgumentDefaultsHelpFormatter": 4944,
      "iphone_15_marques_": 4945,
      "EXTRACT_PATH": 4946,
      "20230416": 4947,
      "_get_rgb_by_label": 4948,
      "PL_26vmg8W_AcEEl_Bo2AhziS": 4949,
      "93r6b8bu": 4950,
      "df0331cefc6c": 4951,
      "37324feba25506": 4952,
      "1c0fd37324feba25506": 4953,
      "MANUAL_ZOOM": 4954,
      "MIDDLEWARES": 4955,
      "apc2016_obj3": 4956,
      "2b9a5d0208a726a5d1c0fd37324feba25506": 4957,
      "iphone_15_marques_review": 4958,
      "df0331cefc6c2b9a5d0208a726a5d1c0fd37324feba25506": 4959,
      "!\",": 4960,
      "\"[^\\": 4961,
      "(?": 4962,
      ")').": 4963,
      "+\"": 4964,
      ".,": 4965,
      "/*": 4966,
      "/{": 4967,
      "01": 4968,
      "27": 4969,
      "2f": 4970,
      "2py": 4971,
      "350": 4972,
      "47": 4973,
      "4AaABAg": 4974,
      "543": 4975,
      ":,": 4976,
      "=%": 4977,
      ">●": 4978,
      ">\",": 4979,
      ">\")": 4980,
      "ALL": 4981,
      "Att": 4982,
      "BC": 4983,
      "BO": 4984,
      "Bp": 4985,
      "BOT": 4986,
      "Dr": 4987,
      "ES": 4988,
      "Est": 4989,
      "Ent": 4990,
      "Email": 4991,
      "F7": 4992,
      "Foc": 4993,
      "Flickr": 4994,
      "Gq": 4995,
      "GENT": 4996,
      "Has": 4997,
      "IG": 4998,
      "ITE": 4999,
      "Json": 5000,
      "Lev": 5001,
      "LIN": 5002,
      "NC": 5003,
      "Nai": 5004,
      "OW": 5005,
      "Ops": 5006,
      "Org": 5007,
      "PR": 5008,
      "Qz": 5009,
      "QFile": 5010,
      "QStyle": 5011,
      "QMenu": 5012,
      "Rg": 5013,
      "Rk": 5014,
      "Ren": 5015,
      "Sto": 5016,
      "SPE": 5017,
      "Summary": 5018,
      "Tri": 5019,
      "Task": 5020,
      "TEN": 5021,
      "TAT": 5022,
      "Tree": 5023,
      "VE": 5024,
      "West": 5025,
      "Xp": 5026,
      "Xs": 5027,
      "][\"": 5028,
      "_shapes": 5029,
      "_old": 5030,
      "_requests": 5031,
      "_win": 5032,
      "_show": 5033,
      "_yaml": 5034,
      "_existing": 5035,
      "_rate": 5036,
      "_line_color": 5037,
      "_examples": 5038,
      "_VERTEX": 5039,
      "_fit_to_content": 5040,
      "ah": 5041,
      "bas": 5042,
      "bers": 5043,
      "border": 5044,
      "branch": 5045,
      "ca": 5046,
      "cke": 5047,
      "credential": 5048,
      "cors": 5049,
      "criter": 5050,
      "cBp": 5051,
      "ding": 5052,
      "f1": 5053,
      "fZ": 5054,
      "gh": 5055,
      "gaussian": 5056,
      "hy": 5057,
      "hance": 5058,
      "hvertex_fill_color": 5059,
      "ique": 5060,
      "ializ": 5061,
      "jwt": 5062,
      "ln": 5063,
      "lator": 5064,
      "mult": 5065,
      "ners": 5066,
      "pur": 5067,
      "palette": 5068,
      "s_dir": 5069,
      "tmp": 5070,
      "tqd": 5071,
      "ua": 5072,
      "v3": 5073,
      "vL": 5074,
      "vDr": 5075,
      "wrap": 5076,
      "yc": 5077,
      "zy": 5078,
      "{\"\":": 5079,
      "}',": 5080,
      "}},": 5081,
      "}```": 5082,
      "setex": 5083,
      "on_doc": 5084,
      "stder": 5085,
      "stuff": 5086,
      "atal": 5087,
      "reshape": 5088,
      "dete": 5089,
      "oral": 5090,
      "or_yaml": 5091,
      "led_": 5092,
      "ely": 5093,
      "lite": 5094,
      "mean": 5095,
      "apable": 5096,
      "than": 5097,
      "alm": 5098,
      "alle": 5099,
      "importDir": 5100,
      "_circle": 5101,
      "_category": 5102,
      "_coral": 5103,
      "visu": 5104,
      "get_config": 5105,
      "get_class_docstring": 5106,
      "get_comments_": 5107,
      "get_file_": 5108,
      "get_source_": 5109,
      "getRg": 5110,
      "today": 5111,
      "robi": 5112,
      "ada": 5113,
      "label_color": 5114,
      "asarray": 5115,
      "bey": 5116,
      "_py": 5117,
      "_pres": 5118,
      "fileName": 5119,
      "units": 5120,
      "setStatus": 5121,
      "setLayout": 5122,
      "setObject": 5123,
      "setEdit": 5124,
      "setIcon": 5125,
      "setDefault": 5126,
      "setScroll": 5127,
      "setOption": 5128,
      "them": 5129,
      "there": 5130,
      "concurrent": 5131,
      "consit": 5132,
      "rich": 5133,
      "shape_module": 5134,
      "noShapes": 5135,
      "d_shapes": 5136,
      "apply": 5137,
      "ild": 5138,
      "Reader": 5139,
      "__ignore": 5140,
      "__iter": 5141,
      "itemloaders": 5142,
      "itemAt": 5143,
      "itemDropped": 5144,
      "opi": 5145,
      "=\"?\",": 5146,
      "istics": 5147,
      "icConfig": 5148,
      "\"]})": 5149,
      "neetcode": 5150,
      "nearest": 5151,
      "programming": 5152,
      "iple": 5153,
      "_sam": 5154,
      "createItem": 5155,
      "get_description": 5156,
      "get_response": 5157,
      "get_videos": 5158,
      "get_tools": 5159,
      "get_video_comments": 5160,
      "get_functions_source": 5161,
      "log_get_": 5162,
      "logstash": 5163,
      "print_examples": 5164,
      "mods": 5165,
      "channels_": 5166,
      "book": 5167,
      "config_file_": 5168,
      "###": 5169,
      "key_comment": 5170,
      "request_": 5171,
      "pytz": 5172,
      "openai": 5173,
      "open_ai_": 5174,
      "paths": 5175,
      "pathlib": 5176,
      "saveWith": 5177,
      "BaseEst": 5178,
      "ItemView": 5179,
      "ItemIs": 5180,
      "function_src": 5181,
      "agent_suggestion": 5182,
      "amic": 5183,
      "dictConfig": 5184,
      "docstring_": 5185,
      "formats": 5186,
      "formatters": 5187,
      "linear": 5188,
      "lineTo": 5189,
      "RE_": 5190,
      "REAC": 5191,
      "default_credentials": 5192,
      "FileNotFoundError": 5193,
      "LabelQListWidget": 5194,
      "loggers": 5195,
      "DataLoader": 5196,
      "UserCreate": 5197,
      "trained_model": 5198,
      "create_logger": 5199,
      "create_application": 5200,
      "create_dev": 5201,
      "ImageData": 5202,
      "ImageFormat": 5203,
      "ImageOps": 5204,
      "ERS": 5205,
      "SearchAPIWrapper": 5206,
      "modules_": 5207,
      "Decode": 5208,
      "_to_b64": 5209,
      "_to_drop": 5210,
      "scrapy_f": 5211,
      "loaderMiddleware": 5212,
      "RequestPasswordReset": 5213,
      "PIPE": 5214,
      "starts": 5215,
      "wait_imageData": 5216,
      "newShape": 5217,
      "processors": 5218,
      "...": 5219,
      "tables": 5220,
      "Provi": 5221,
      "INDOW": 5222,
      "num_cols": 5223,
      "zoomIn": 5224,
      "zoomOut": 5225,
      "zoomOrg": 5226,
      "GoogleSearchAPIWrapper": 5227,
      "DELE": 5228,
      "{})": 5229,
      "removeSelected": 5230,
      "analyst_": 5231,
      "PyQt5": 5232,
      "minimum": 5233,
      "driving": 5234,
      "transformPos": 5235,
      "from_documents": 5236,
      "find_latest_video": 5237,
      "find_my_": 5238,
      "Loss": 5239,
      "find_product_": 5240,
      "subclass": 5241,
      "categorical": 5242,
      "bus": 5243,
      "sqlite": 5244,
      "num_epoch": 5245,
      "num_workers": 5246,
      "filters": 5247,
      "offsets": 5248,
      "flask_": 5249,
      "light_coral": 5250,
      "comment_res": 5251,
      "SlidesPipeline": 5252,
      "})[\"": 5253,
      "Calcul": 5254,
      "Callable": 5255,
      "relative": 5256,
      "QAbstract": 5257,
      "cal_features": 5258,
      "select_line_color": 5259,
      "extract_dataset": 5260,
      "Make": 5261,
      "_AGENT": 5262,
      "encoder_cnn": 5263,
      "is_shift": 5264,
      "_and_wait_imageData": 5265,
      "hShapeIs": 5266,
      "Functions": 5267,
      "SaveSlidesPipeline": 5268,
      "keepPrevScale": 5269,
      "segmentations": 5270,
      "presentations": 5271,
      "presentation_name": 5272,
      "presentationId": 5273,
      "_shape_raw": 5274,
      "autom": 5275,
      "token_": 5276,
      "tokenizer": 5277,
      "pythonjsonlogger": 5278,
      "_factor": 5279,
      "register_blueprint": 5280,
      "ake_user": 5281,
      "scrollBar": 5282,
      "scroll_values": 5283,
      "parse_arguments": 5284,
      "Visitor": 5285,
      "ROTAT": 5286,
      "Unique": 5287,
      "```{": 5288,
      "annotate": 5289,
      "img_arr_to_b64": 5290,
      "_loggers": 5291,
      "rules": 5292,
      "warn": 5293,
      "post_request": 5294,
      "clip": 5295,
      "n_selected": 5296,
      "SIONS": 5297,
      "such": 5298,
      "find_channel_playlists": 5299,
      "keep_prev_mode": 5300,
      "columns_to_drop": 5301,
      "InvalidToken": 5302,
      "highlightVertex": 5303,
      "ButtonBox": 5304,
      "contours": 5305,
      "AR_VERTEX": 5306,
      "FromLabel": 5307,
      "Neighbors": 5308,
      "decoder_rnn": 5309,
      "model_dump_json": 5310,
      "DatasetMet": 5311,
      "Generating": 5312,
      "channel_title": 5313,
      "working": 5314,
      "playlist_item_id": 5315,
      "disable_existing": 5316,
      "Added": 5317,
      "Cancel": 5318,
      "DownloaderMiddleware": 5319,
      "shapesBackup": 5320,
      "EXTEN": 5321,
      "ializes": 5322,
      "formed": 5323,
      "AlignCenter": 5324,
      "github2py": 5325,
      "11_": 5326,
      "NEAR_VERTEX": 5327,
      "simple": 5328,
      "similar": 5329,
      "statusBar": 5330,
      "retrieved": 5331,
      "ScrollArea": 5332,
      "auto_save": 5333,
      ")}\")": 5334,
      ")}),": 5335,
      "DropItem": 5336,
      "MyImagesPipeline": 5337,
      "_mask_input": 5338,
      "puter": 5339,
      "rate_": 5340,
      "_png_data": 5341,
      "CeleryConfig": 5342,
      "my_activities": 5343,
      "visit_": 5344,
      "_saveFile": 5345,
      "Loading": 5346,
      "FitWidth": 5347,
      "before_request": 5348,
      "feature_cols": 5349,
      "Decision": 5350,
      "Currently": 5351,
      "supportedImageFormat": 5352,
      "numerical_features": 5353,
      "Crew": 5354,
      "analyzed_quote": 5355,
      "DirectoryIterator": 5356,
      "topic_assign_msg": 5357,
      "USER_AGENT": 5358,
      "_scale_factor": 5359,
      "resize_image": 5360,
      "build": 5361,
      "MOVE_SPE": 5362,
      "Closed": 5363,
      "_highlightIndex": 5364,
      "generator": 5365,
      "depth": 5366,
      "depend": 5367,
      "addLabelHistory": 5368,
      "SlidesmodelPipeline": 5369,
      "target_dict": 5370,
      "img_data_to_pil": 5371,
      "img_data_to_png_data": 5372,
      "yellow2": 5373,
      "redis_host": 5374,
      "QImageReader": 5375,
      "Web": 5376,
      "efficient_sam": 5377,
      "failed_": 5378,
      "pandas": 5379,
      "setShapeRef": 5380,
      "setItemLabel": 5381,
      "processed_": 5382,
      "log_post_request": 5383,
      "environments": 5384,
      "tuned_model_ids": 5385,
      "Override": 5386,
      "statistics": 5387,
      "development": 5388,
      "adjustScale": 5389,
      "aggrovets": 5390,
      "findItemByLabel": 5391,
      "FIT_WINDOW": 5392,
      "safe_load": 5393,
      "MODELS": 5394,
      "CREATE": 5395,
      "M_PIPE": 5396,
      "QDialogButtonBox": 5397,
      "Remin": 5398,
      "_report": 5399,
      "hours": 5400,
      "Initializes": 5401,
      "moveByKeyboard": 5402,
      "_password_reset_email": 5403,
      "PASSWORD": 5404,
      "axis": 5405,
      "turbo": 5406,
      "expected": 5407,
      "occurred": 5408,
      "learning_rate": 5409,
      "test_MainWindow_open": 5410,
      "train_model_task": 5411,
      "toggle_keep_prev_mode": 5412,
      "account_activation_email": 5413,
      ">●</": 5414,
      "ALLOW": 5415,
      "Entropy": 5416,
      "Focus": 5417,
      "FlickrDataset": 5418,
      "ITEM_PIPE": 5419,
      "JsonFormatter": 5420,
      "Level": 5421,
      "LINES": 5422,
      "Nairobi": 5423,
      "Render": 5424,
      "Store": 5425,
      "SummaryWriter": 5426,
      "_win_show": 5427,
      "basicConfig": 5428,
      "criterion": 5429,
      "cBpGq": 5430,
      "gaussian_process": 5431,
      "hyperparameters": 5432,
      "multiple": 5433,
      "tqdm": 5434,
      "vDr2Y": 5435,
      "on_docker": 5436,
      "stderr": 5437,
      "importDirImages": 5438,
      "visualization": 5439,
      "get_comments_iterator": 5440,
      "get_file_extension": 5441,
      "get_source_segment": 5442,
      "getRgb": 5443,
      "_pressed": 5444,
      "setStatusTip": 5445,
      "setObjectName": 5446,
      "consiting": 5447,
      "__ignore__": 5448,
      "__iter__": 5449,
      "createItemFromLabel": 5450,
      "log_get_request": 5451,
      "bookmarked": 5452,
      "config_file_or_yaml": 5453,
      "saveWithImageData": 5454,
      "BaseEstimator": 5455,
      "default_credentials_path": 5456,
      "create_application_config": 5457,
      "create_dev_logger": 5458,
      "modules_queue": 5459,
      "scrapy_fake_user": 5460,
      "DELETE": 5461,
      "removeSelectedPoint": 5462,
      "minimumSizeHint": 5463,
      "categorical_features": 5464,
      "num_epochs": 5465,
      "is_shift_pressed": 5466,
      "hShapeIsSelected": 5467,
      "scrollBars": 5468,
      "ROTATE_": 5469,
      "UniqueLabelQListWidget": 5470,
      "InvalidTokenError": 5471,
      "DatasetMetadata": 5472,
      "disable_existing_loggers": 5473,
      "EXTENSIONS": 5474,
      "github2pypi": 5475,
      "supportedImageFormats": 5476,
      "MOVE_SPEED": 5477,
      "failed_modules_queue": 5478,
      "setShapeRefined": 5479,
      "ITEM_PIPELINES": 5480,
      "_win_show_and_wait_imageData": 5481,
      "scrapy_fake_useragent": 5482,
      "!')": 5483,
      "!'},": 5484,
      "\"-": 5485,
      "\"[": 5486,
      "'}": 5487,
      "'[^": 5488,
      "'\\\"": 5489,
      "'['\\\"]*|": 5490,
      "({": 5491,
      "(\"\"\"": 5492,
      "({'": 5493,
      ")\").": 5494,
      "*,": 5495,
      "*'['\\\"]*|": 5496,
      "+>\"": 5497,
      ".\"),": 5498,
      "1M": 5499,
      "1I0": 5500,
      "2Seq": 5501,
      "3b": 5502,
      "3dd": 5503,
      "400": 5504,
      "75": 5505,
      "90": 5506,
      ":]:": 5507,
      ":\\\"": 5508,
      "={'": 5509,
      ">\"]": 5510,
      ">])": 5511,
      "?'": 5512,
      "Ada": 5513,
      "API_KEY": 5514,
      "B_": 5515,
      "BEY": 5516,
      "Bcrypt": 5517,
      "Branch": 5518,
      "Brid": 5519,
      "Cannot": 5520,
      "COO": 5521,
      "CSE_": 5522,
      "Customer": 5523,
      "DI": 5524,
      "DR": 5525,
      "Ds": 5526,
      "Dra": 5527,
      "El": 5528,
      "Fa": 5529,
      "Fill": 5530,
      "GQ": 5531,
      "GE_": 5532,
      "HS": 5533,
      "HT": 5534,
      "Hl": 5535,
      "How": 5536,
      "Human": 5537,
      "IM": 5538,
      "IZ": 5539,
      "IST": 5540,
      "IVE_": 5541,
      "IHy": 5542,
      "JW": 5543,
      "Jsc": 5544,
      "KE": 5545,
      "Kentaro": 5546,
      "KIE": 5547,
      "LST": 5548,
      "LNE": 5549,
      "M0": 5550,
      "Mig": 5551,
      "Muse": 5552,
      "MED": 5553,
      "NQ": 5554,
      "NT": 5555,
      "Nk": 5556,
      "NXp": 5557,
      "Or": 5558,
      "OLE_": 5559,
      "ODO": 5560,
      "Obey": 5561,
      "OBEY": 5562,
      "P_": 5563,
      "Pop": 5564,
      "QLabel": 5565,
      "QReg": 5566,
      "RF": 5567,
      "Rd": 5568,
      "Ri": 5569,
      "RAT": 5570,
      "SE": 5571,
      "Sample": 5572,
      "Smt": 5573,
      "SOLE_": 5574,
      "TA": 5575,
      "TZ": 5576,
      "Tra": 5577,
      "Tog": 5578,
      "TCON": 5579,
      "Titanic": 5580,
      "TODO": 5581,
      "UV": 5582,
      "UCR": 5583,
      "V3": 5584,
      "VN": 5585,
      "VO": 5586,
      "WC": 5587,
      "WV": 5588,
      "Wor": 5589,
      "Wim": 5590,
      "Where": 5591,
      "Would": 5592,
      "WSPIDER_MODULE": 5593,
      "Wada": 5594,
      "X_": 5595,
      "XT_": 5596,
      "X_T": 5597,
      "YPE": 5598,
      "YWim": 5599,
      "Zk": 5600,
      "ZHl": 5601,
      "_se": 5602,
      "_ar": 5603,
      "_ser": 5604,
      "_and": 5605,
      "_description": 5606,
      "_base": 5607,
      "_ui": 5608,
      "_edit": 5609,
      "_update": 5610,
      "_video_id": 5611,
      "_run": 5612,
      "_next": 5613,
      "_ho": 5614,
      "_methods": 5615,
      "_2b": 5616,
      "_selection": 5617,
      "_server": 5618,
      "_CO": 5619,
      "_score": 5620,
      "_decoder_session": 5621,
      "_yellow": 5622,
      "_language": 5623,
      "_fir": 5624,
      "_set_": 5625,
      "_retriever": 5626,
      "_encoder_session": 5627,
      "_CLIENT_": 5628,
      "_channels_": 5629,
      "_IHy": 5630,
      "a1": 5631,
      "bC": 5632,
      "bw": 5633,
      "bly": 5634,
      "bright": 5635,
      "cn": 5636,
      "cos": 5637,
      "call": 5638,
      "cols": 5639,
      "click": 5640,
      "dp": 5641,
      "d_caption": 5642,
      "dcstr": 5643,
      "datal": 5644,
      "ede": 5645,
      "ead": 5646,
      "esc": 5647,
      "eos": 5648,
      "fer": 5649,
      "fri": 5650,
      "free": 5651,
      "fuck": 5652,
      "flatten": 5653,
      "give": 5654,
      "gold": 5655,
      "hs": 5656,
      "hin": 5657,
      "hon": 5658,
      "held": 5659,
      "hold": 5660,
      "hUV": 5661,
      "iP": 5662,
      "ish": 5663,
      "ijo": 5664,
      "jd": 5665,
      "jan": 5666,
      "kely": 5667,
      "mit": 5668,
      "mry": 5669,
      "nat": 5670,
      "n_c": 5671,
      "nable": 5672,
      "napping": 5673,
      "o1": 5674,
      "oader": 5675,
      "oose": 5676,
      "ph": 5677,
      "ply": 5678,
      "q_length": 5679,
      "rit": 5680,
      "rand": 5681,
      "ratic": 5682,
      "sb": 5683,
      "sis": 5684,
      "sugge": 5685,
      "sPlaceholder": 5686,
      "snapping": 5687,
      "t1": 5688,
      "t2": 5689,
      "tF": 5690,
      "ture": 5691,
      "tbw": 5692,
      "ular": 5693,
      "uary_": 5694,
      "vid": 5695,
      "vori": 5696,
      "wF7": 5697,
      "xtract": 5698,
      "xa0": 5699,
      "yers": 5700,
      "zing": 5701,
      "z_object": 5702,
      "}'": 5703,
      "}/\"": 5704,
      "}!\",": 5705,
      "se_layers": 5706,
      "seq_length": 5707,
      "in_": 5708,
      "inte": 5709,
      "inal": 5710,
      "inclu": 5711,
      "onShapes": 5712,
      "stack": 5713,
      "steps": 5714,
      "stClassifier": 5715,
      "stream": 5716,
      "stamp": 5717,
      "atform": 5718,
      "rem": 5719,
      "red_": 5720,
      "respon": 5721,
      "reason": 5722,
      "dedent": 5723,
      "deselected": 5724,
      "deded": 5725,
      "deSelect": 5726,
      "orange": 5727,
      "lead": 5728,
      "imer": 5729,
      "imshow": 5730,
      "tel": 5731,
      "tear": 5732,
      "tell": 5733,
      "teach": 5734,
      "te_channels_": 5735,
      "laun": 5736,
      "likely": 5737,
      "()}": 5738,
      "()])": 5739,
      "())),": 5740,
      "meas": 5741,
      "apture": 5742,
      "cts": 5743,
      "ctx": 5744,
      "cting": 5745,
      "ssing": 5746,
      "chase": 5747,
      "chron": 5748,
      "ateUser": 5749,
      "port_json": 5750,
      "important": 5751,
      "ering": 5752,
      "disc": 5753,
      "diase": 5754,
      "digit": 5755,
      "_close": 5756,
      "_categ": 5757,
      "_copi": 5758,
      "int32": 5759,
      "viole": 5760,
      "tok": 5761,
      "tobytes": 5762,
      "toSmt": 5763,
      "robot": 5764,
      "rovets": 5765,
      "adratic": 5766,
      "outline": 5767,
      "as_retriever": 5768,
      "\"\".": 5769,
      "\"\"],": 5770,
      "being": 5771,
      "ford": 5772,
      "_playwright": 5773,
      "_places": 5774,
      "short": 5775,
      "shit": 5776,
      "shutil": 5777,
      "spacy": 5778,
      "spaw": 5779,
      "spacy_": 5780,
      "itali": 5781,
      "ke8": 5782,
      "kextract": 5783,
      "data_path": 5784,
      "unit": 5785,
      "uncs": 5786,
      "uned_model": 5787,
      "unsuppor": 5788,
      "unknow": 5789,
      "unHighlight": 5790,
      "vest": 5791,
      "vered_": 5792,
      "setM": 5793,
      "setP": 5794,
      "set_image": 5795,
      "setZoom": 5796,
      "setPlaceholder": 5797,
      "setFixed": 5798,
      "setLevel": 5799,
      "listdir": 5800,
      "list_playlist": 5801,
      "list_comment_replies": 5802,
      "thefuck": 5803,
      "consult": 5804,
      "constant": 5805,
      "image2": 5806,
      "image_bytes": 5807,
      "\")[": 5808,
      "\")).": 5809,
      "ries": 5810,
      "shape_color": 5811,
      "shapeMove": 5812,
      "isShape": 5813,
      "is_item": 5814,
      "isVisible": 5815,
      "isClosed": 5816,
      "isdigit": 5817,
      "noqa": 5818,
      "expand": 5819,
      "export_json": 5820,
      "gslides": 5821,
      "(\"-": 5822,
      "(\"{}": 5823,
      "abc": 5824,
      "abstract": 5825,
      "d_with": 5826,
      "d_message": 5827,
      "d_vocab": 5828,
      "app_ho": 5829,
      "docstr": 5830,
      "puting": 5831,
      "Res": 5832,
      "Real": 5833,
      "Restore": 5834,
      "Restor": 5835,
      "__len": 5836,
      "item__": 5837,
      "itemChanged": 5838,
      "itemFrom": 5839,
      "dirty": 5840,
      "ineering": 5841,
      "model_params": 5842,
      "=\"/": 5843,
      "=\"<": 5844,
      "=\"✅": 5845,
      "=\"❌": 5846,
      "point_coord": 5847,
      "comment_schema": 5848,
      "ht_IHy": 5849,
      "ick": 5850,
      "youtube_playlist": 5851,
      "youtube_response": 5852,
      "production": 5853,
      "user_config": 5854,
      "parag": 5855,
      "up_": 5856,
      "up_con": 5857,
      "uploa": 5858,
      "uploaded": 5859,
      "get_video_id": 5860,
      "get_search_iterator": 5861,
      "get_post_": 5862,
      "get_fa": 5863,
      "get_channel_names": 5864,
      "get_best_models": 5865,
      "get_channel_playlists": 5866,
      "get_function_docstring": 5867,
      "get_media": 5868,
      "get_key_like": 5869,
      "log_response": 5870,
      "log_request": 5871,
      "Polic": 5872,
      "Positive": 5873,
      "most_": 5874,
      "scribers": 5875,
      "within": 5876,
      "args_schema": 5877,
      "atures": 5878,
      "formLayout": 5879,
      "('::": 5880,
      "agrovets": 5881,
      "imezone": 5882,
      "ore_st": 5883,
      "Try": 5884,
      "verManager": 5885,
      "output_size": 5886,
      "pytorch": 5887,
      "addAction": 5888,
      "addZoom": 5889,
      "addDockWidget": 5890,
      "addEl": 5891,
      "opendir": 5892,
      "Shot": 5893,
      "oflu": 5894,
      "of_places": 5895,
      "cls_docstring": 5896,
      "_tools": 5897,
      "Layers": 5898,
      "code_path": 5899,
      "urllib": 5900,
      "time_st": 5901,
      "fects": 5902,
      "filenames": 5903,
      "save_photo": 5904,
      "session_data": 5905,
      "ListVideo": 5906,
      "BaseUI": 5907,
      "points_circle": 5908,
      "flake8": 5909,
      "ends": 5910,
      "endMove": 5911,
      "format_to_openai_function": 5912,
      "format_tool": 5913,
      "Still": 5914,
      "Staging": 5915,
      "perf": 5916,
      "performed": 5917,
      "line_width": 5918,
      "defaultWidget": 5919,
      "defaultLanguage": 5920,
      "defaultOpenDir": 5921,
      "slidemodel": 5922,
      "FileMessage": 5923,
      "FileStorage": 5924,
      "cursor": 5925,
      "titles": 5926,
      "raphs": 5927,
      "']},": 5928,
      "']*'['\\\"]*|": 5929,
      "margin": 5930,
      "UserBase": 5931,
      "train_data": 5932,
      "trained": 5933,
      "train_t": 5934,
      "train_cnn": 5935,
      "create_drive_client": 5936,
      "create_gslide_client": 5937,
      "top_level": 5938,
      "author_comments": 5939,
      "by_ids": 5940,
      "labelmerc": 5941,
      "labelmeai": 5942,
      "\".\"": 5943,
      "Parsing": 5944,
      "works": 5945,
      "input_label": 5946,
      "CommentData": 5947,
      "CommentCreated": 5948,
      "CommentResource": 5949,
      "Input": 5950,
      "Insert": 5951,
      "Inference": 5952,
      "Invest": 5953,
      "astimezone": 5954,
      "T_NAME": 5955,
      "load_state_dict": 5956,
      "Expr": 5957,
      "parse_pro": 5958,
      "parse_slide": 5959,
      "_to_bboxes": 5960,
      "_to_youtube_playlist": 5961,
      "oks": 5962,
      "playlistId": 5963,
      "playlist_ids": 5964,
      "playlist_snippet": 5965,
      "s_text": 5966,
      "s_iterator": 5967,
      "s_ses": 5968,
      "s_by_ids": 5969,
      "st_request": 5970,
      "instead": 5971,
      "transit": 5972,
      "00000": 5973,
      "currentPath": 5974,
      "argmax": 5975,
      "viz_file": 5976,
      "search_video": 5977,
      "search_response": 5978,
      "search_resp": 5979,
      "_urls_dict": 5980,
      "drawPath": 5981,
      "start_urls_dict": 5982,
      "linkextract": 5983,
      "STXT_": 5984,
      "toolTip": 5985,
      "lities": 5986,
      "Meet": 5987,
      "E_RAT": 5988,
      "email_type": 5989,
      "down_request": 5990,
      "MessagesPlaceholder": 5991,
      "backref": 5992,
      "backward": 5993,
      "video_resource": 5994,
      "video_segments": 5995,
      "End": 5996,
      "zoomActions": 5997,
      "zoomBoxLayout": 5998,
      "products": 5999,
      "product_features": 6000,
      "add_row": 6001,
      "update_dict": 6002,
      "update_post": 6003,
      "Context": 6004,
      "Convert": 6005,
      "maps": 6006,
      "_status": 6007,
      "support": 6008,
      "suppli": 6009,
      "indexFrom": 6010,
      "analyst": 6011,
      "analyzing": 6012,
      "use_color": 6013,
      "_playlist_items": 6014,
      "_playlists_iterator": 6015,
      "save_model": 6016,
      "VideoTools": 6017,
      "yourself": 6018,
      "yourshit": 6019,
      "OpenAIFunctions": 6020,
      "generate_comments": 6021,
      "generate_doc": 6022,
      "popular": 6023,
      "from_object": 6024,
      "row_style": 6025,
      "execut": 6026,
      "find_request": 6027,
      "find_video_comments": 6028,
      "find_my": 6029,
      "find_author_comments": 6030,
      "denom": 6031,
      "dense_layers": 6032,
      "sending": 6033,
      "Present": 6034,
      "blem": 6035,
      "application_start": 6036,
      "Sphin": 6037,
      "were": 6038,
      "resourceId": 6039,
      "overall_": 6040,
      "ivateUser": 6041,
      "label_list": 6042,
      "train_loader": 6043,
      "store_data": 6044,
      "delete_": 6045,
      "list_of_places": 6046,
      "findItems": 6047,
      "find_playlist_items": 6048,
      "event_str": 6049,
      "group_mode": 6050,
      "subtract": 6051,
      "subplot": 6052,
      "L_DO": 6053,
      "bula": 6054,
      "_class_methods_docstring": 6055,
      "sqrt": 6056,
      "common": 6057,
      "commonly": 6058,
      "agent_chain": 6059,
      "agent_scratchpad": 6060,
      "handles": 6061,
      "2011_": 6062,
      "=[[": 6063,
      "_columns": 6064,
      "comment_author": 6065,
      "')),": 6066,
      "SlidesLinkExtractor": 6067,
      "user_home": 6068,
      "cls_id": 6069,
      "TED_": 6070,
      "TELNE": 6071,
      "_funcs": 6072,
      "_vrtx_path": 6073,
      "mers": 6074,
      "_contour": 6075,
      "celery_b": 6076,
      "celery_result": 6077,
      "ted_media": 6078,
      "sentiment_template": 6079,
      "sentiment_msg": 6080,
      "writelines": 6081,
      "llm_with": 6082,
      "email_sen": 6083,
      "category_id": 6084,
      "category_link": 6085,
      "_embedding_size": 6086,
      "lbl_name": 6087,
      "refer": 6088,
      "selector": 6089,
      "Active": 6090,
      "ActivateUser": 6091,
      "1000": 6092,
      "fit_": 6093,
      "is_valid": 6094,
      "is_label_file": 6095,
      "ViewAction": 6096,
      "LE_HEAD": 6097,
      "dyn": 6098,
      "ed_file": 6099,
      "ed_shapes": 6100,
      "idered": 6101,
      "large": 6102,
      "FunctionVisitor": 6103,
      "distutils": 6104,
      "togglePolygons": 6105,
      "toggleViewAction": 6106,
      "S_ENABLED": 6107,
      "autoflu": 6108,
      "register_app_ho": 6109,
      "StrOutputParser": 6110,
      "_docstr": 6111,
      "parse_function_doc": 6112,
      "experiment_pipeline": 6113,
      "DOMAI": 6114,
      "uguration": 6115,
      "_presentation": 6116,
      "AgentState": 6117,
      "AgentOutputParser": 6118,
      "AgentType": 6119,
      "AgentExecutor": 6120,
      "requires_grad": 6121,
      "1225": 6122,
      "ROUND": 6123,
      "ROBOT": 6124,
      "Undo": 6125,
      "Unsupported": 6126,
      "Unexpected": 6127,
      "gativeComment": 6128,
      "padded": 6129,
      "pad_edge": 6130,
      "onnx_coord": 6131,
      "fmtShortcut": 6132,
      "links_path": 6133,
      "whisper": 6134,
      "ActionMessage": 6135,
      "MAP": 6136,
      "MAX_": 6137,
      "POINT": 6138,
      "giving": 6139,
      "atically": 6140,
      "annotation": 6141,
      "img_arr_to_data": 6142,
      "_messages": 6143,
      "coord": 6144,
      "covered": 6145,
      "decode_auth_token": 6146,
      "send_training": 6147,
      "cats": 6148,
      "n_points_circle": 6149,
      "n_is_valid": 6150,
      "oauthlib": 6151,
      "negative_tmpl": 6152,
      "negative_vrtx_path": 6153,
      "masks_to_bboxes": 6154,
      "validation_prompt": 6155,
      "validation_chain": 6156,
      "validation_result": 6157,
      "DriverManager": 6158,
      "plicity": 6159,
      "ProductVideoTools": 6160,
      "QPixmap": 6161,
      "overwrite_class_docstring": 6162,
      "overwrite_class_methods_docstring": 6163,
      "positive_tmpl": 6164,
      "Runnable": 6165,
      "insert_playlist_item": 6166,
      "vectore_st": 6167,
      "singleShot": 6168,
      "layout_edit": 6169,
      "chat_models": 6170,
      "ARCH": 6171,
      "platform": 6172,
      "out_viz_file": 6173,
      "more_posts": 6174,
      "ously": 6175,
      "Nebula": 6176,
      "NegativeComment": 6177,
      "affects": 6178,
      "allowed_file": 6179,
      "sync_playwright": 6180,
      "decoder_inputs": 6181,
      "crement": 6182,
      "plan_is_valid": 6183,
      "y6SV": 6184,
      "encoded_message": 6185,
      "DockWidgetArea": 6186,
      "FindProductReview": 6187,
      "FindProductVideoTools": 6188,
      "[^\\\"]*": 6189,
      "[^'\\\"": 6190,
      "RedisSettings": 6191,
      "Training": 6192,
      "preprocess_image": 6193,
      "workflow": 6194,
      "process_spider_exception": 6195,
      "full_chain": 6196,
      "AskFileMessage": 6197,
      "AskActionMessage": 6198,
      "QListWidgetItem": 6199,
      "UExnQ": 6200,
      "_dropout": 6201,
      "_dcstr": 6202,
      "activation_token": 6203,
      "restoreShape": 6204,
      "test_img1": 6205,
      "test_img2": 6206,
      "test_img3": 6207,
      "unique_label_": 6208,
      "NEWSPIDER_MODULE": 6209,
      "aws_ses": 6210,
      "my_playlists_iterator": 6211,
      "sibly": 6212,
      "simplicity": 6213,
      "medium": 6214,
      "root_dir": 6215,
      "root_directory": 6216,
      "uploading": 6217,
      "20231225": 6218,
      "autocommit": 6219,
      "AsyncResult": 6220,
      "QT4": 6221,
      "QTimer": 6222,
      "_get_image_embedding": 6223,
      "ralWidget": 6224,
      "localhost": 6225,
      "_createMode": 6226,
      "confuguration": 6227,
      "YouTubeChannelTitle": 6228,
      "YouTubeChannelDetailsTool": 6229,
      "_tasks": 6230,
      "GOOGLE_OAUTH": 6231,
      "GOOGLE_API_KEY": 6232,
      "GOOGLE_CSE_": 6233,
      "\"<(?": 6234,
      "PORTED_": 6235,
      "_cache_image_embedding": 6236,
      "youtube_find_request": 6237,
      "SystemMessagePromptTemplate": 6238,
      "UExfMjZ2bWc4V19BZk": 6239,
      "FitWindow": 6240,
      "Hello": 6241,
      "RandomCrop": 6242,
      "SUPPORTED_": 6243,
      "before_fir": 6244,
      "considered": 6245,
      "predict_polygon": 6246,
      "_compute_mask_from_points": 6247,
      "_compute_and": 6248,
      "dark_orange": 6249,
      "travel_agent": 6250,
      "CURSOR_POINT": 6251,
      "\\\"['\\\"]*|": 6252,
      "farmers": 6253,
      "monitor": 6254,
      "welcome_user": 6255,
      "data_transform": 6256,
      "expire": 6257,
      "img_pil_to_data": 6258,
      "methods_docstrings": 6259,
      "accuracy_": 6260,
      "password_reset_token": 6261,
      "generate_bookmarks": 6262,
      "analyzed_quotes": 6263,
      "Embedding": 6264,
      "problem_link": 6265,
      "problem_links": 6266,
      "CONCURRENT_REQUESTS": 6267,
      "IMAGE_": 6268,
      "IMAL_DO": 6269,
      "Options": 6270,
      "SVM": 6271,
      "frequ": 6272,
      "missing": 6273,
      "two": 6274,
      "twine": 6275,
      "render": 6276,
      "get_class_prompt_template": 6277,
      "get_class_methods_docstring": 6278,
      "get_all_channels": 6279,
      "ways": 6280,
      "waypoints": 6281,
      "initialize_agent": 6282,
      "initializeAiModel": 6283,
      "Annotation": 6284,
      "save_post_photo_": 6285,
      "connection_string": 6286,
      "build_vocab": 6287,
      "segments_dir": 6288,
      "tokenize_": 6289,
      "after_request": 6290,
      "func_docstr": 6291,
      "identifying": 6292,
      "setHidden": 6293,
      "LIB_": 6294,
      "_SIZ": 6295,
      "second": 6296,
      "open_ai": 6297,
      "ChromeService": 6298,
      "ChromeDriverManager": 6299,
      "DecoderRNN": 6300,
      "handle_unsuppor": 6301,
      "specified": 6302,
      "DOWNLOAD_DELAY": 6303,
      "profile_picture_url": 6304,
      "EfficientSamVit": 6305,
      "MINIMAL_DO": 6306,
      "MIN_SIZ": 6307,
      "_TYPE": 6308,
      "faiss": 6309,
      "beginning": 6310,
      "beginners": 6311,
      "setClean": 6312,
      "processed": 6313,
      "log_exception": 6314,
      "input_size_": 6315,
      "EncoderCNN": 6316,
      "img_qt_to_arr": 6317,
      "English": 6318,
      "Engineering": 6319,
      "Feel": 6320,
      "Features": 6321,
      "Quadratic": 6322,
      "RightDockWidgetArea": 6323,
      "lstm": 6324,
      "scheme": 6325,
      "schedule": 6326,
      "firm": 6327,
      "Seq2Seq": 6328,
      "CommentsParser": 6329,
      "load_more_comments": 6330,
      "load_more_posts": 6331,
      "Completer": 6332,
      "Completion": 6333,
      "HEADERS": 6334,
      "intersection": 6335,
      "intersecting": 6336,
      "CONCURRENT_REQUESTS_PER_IP": 6337,
      "CONCURRENT_REQUESTS_PER_DOMAI": 6338,
      "SPIDER_MODULES": 6339,
      "screenshot_bytes": 6340,
      "OAUTHLIB_": 6341,
      "356": 6342,
      "Ark": 6343,
      "Escapable": 6344,
      "NSNXp": 6345,
      "SW1A": 6346,
      "UBLE_HEAD": 6347,
      "Ugx": 6348,
      "hexwF7": 6349,
      "mapping_prompt": 6350,
      "ratio": 6351,
      "small": 6352,
      "summry": 6353,
      "features_covered_": 6354,
      "current_user_home": 6355,
      "draw_action": 6356,
      "add_video_to_youtube_playlist": 6357,
      "daily_playlist": 6358,
      "asynchron": 6359,
      "REQUEST_HEADERS": 6360,
      "tribute": 6361,
      "declarative_base": 6362,
      "algorithms": 6363,
      "RepeatableActivityCreated": 6364,
      "Crawl": 6365,
      "CrossEntropy": 6366,
      "IA_TYPE": 6367,
      "Itinerary": 6368,
      "MTht_IHy": 6369,
      "UNSUPPORTED_": 6370,
      "Wait": 6371,
      "btn": 6372,
      "black": 6373,
      "caching": 6374,
      "privacy": 6375,
      "end_time": 6376,
      "mentioned": 6377,
      "conv_layers": 6378,
      "(\"################################": 6379,
      "created_posts": 6380,
      "get_channel_details": 6381,
      "StandardItem": 6382,
      "input_point": 6383,
      "Analysis": 6384,
      "split_docs": 6385,
      "URLS_": 6386,
      "LoginUser": 6387,
      "sam_vit_": 6388,
      "PL_26vmg8W_AfJW": 6389,
      "expiration_time": 6390,
      "DEFAULT_REQUEST_HEADERS": 6391,
      "tune_model": 6392,
      "numericalized_caption": 6393,
      "Duplicates": 6394,
      "Fetched": 6395,
      "BOT_NAME": 6396,
      "border_style": 6397,
      "ializer": 6398,
      "purchase": 6399,
      "ycle": 6400,
      "detect": 6401,
      "allel": 6402,
      "apply_": 6403,
      "Provider": 6404,
      "{})\".": 6405,
      "annotated_with": 6406,
      "simple_text": 6407,
      "rate_lim": 6408,
      "efficient_sam_vi": 6409,
      "_report_task": 6410,
      "multiple_selection": 6411,
      "'[^']*'['\\\"]*|": 6412,
      "1I0ZHl": 6413,
      "3ddMTht_IHy": 6414,
      ":\\\"[^\\\"]*": 6415,
      ">])+>\"": 6416,
      "AdaBoo": 6417,
      "Bridge": 6418,
      "COOKIE": 6419,
      "CustomerCommentData": 6420,
      "HS256": 6421,
      "HTML": 6422,
      "HumanMessagePromptTemplate": 6423,
      "IVE_NAME": 6424,
      "LSTM": 6425,
      "Museum": 6426,
      "MEDIA_TYPE": 6427,
      "P_ROUND": 6428,
      "QRegExp": 6429,
      "Rich": 6430,
      "SOLE_ENABLED": 6431,
      "Toggle": 6432,
      "TCONSOLE_ENABLED": 6433,
      "UCRijo": 6434,
      "Works": 6435,
      "YWimhexwF7": 6436,
      "_arun": 6437,
      "_serializer": 6438,
      "_description_template": 6439,
      "_next_parser": 6440,
      "_set_up_": 6441,
      "bright_yellow": 6442,
      "cnm": 6443,
      "dcstr_node": 6444,
      "dataloader": 6445,
      "gold1": 6446,
      "honor": 6447,
      "hUVJsc": 6448,
      "january_": 6449,
      "n_classes": 6450,
      "vorite_channels_": 6451,
      "including": 6452,
      "onShapesPresent": 6453,
      "responsibly": 6454,
      "deSelectShape": 6455,
      "leading": 6456,
      "teardown_request": 6457,
      "teacher": 6458,
      "launch": 6459,
      "measure": 6460,
      "discover": 6461,
      "diasease": 6462,
      "_closed": 6463,
      "_copied_shapes": 6464,
      "violet": 6465,
      "toSmtYWimhexwF7": 6466,
      "robots": 6467,
      "spawn": 6468,
      "italic": 6469,
      "unknown": 6470,
      "setPlaceholderText": 6471,
      "list_playlist_videos": 6472,
      "thefuckyourshit": 6473,
      "consulting": 6474,
      "constant_str": 6475,
      "shapeMoved": 6476,
      "isShapeRestor": 6477,
      "expanduser": 6478,
      "gslides_client": 6479,
      "abstractmethod": 6480,
      "__len__": 6481,
      "itemFromIndex": 6482,
      "point_coords": 6483,
      "user_config_file": 6484,
      "paragraphs": 6485,
      "up_constant": 6486,
      "uploadeded": 6487,
      "get_favorite_channels_": 6488,
      "get_media_requests": 6489,
      "Policy": 6490,
      "PositiveComment": 6491,
      "addEllipse": 6492,
      "save_photo_funcs": 6493,
      "format_to_openai_function_messages": 6494,
      "format_tool_to_openai_function": 6495,
      "defaultOpenDirPath": 6496,
      "train_tuned_model": 6497,
      "top_level_comment": 6498,
      "InferenceSession": 6499,
      "parse_problem": 6500,
      "000003": 6501,
      "linkextractors": 6502,
      "STXT_OBEY": 6503,
      "E_RATIO": 6504,
      "supplied": 6505,
      "indexFromItem": 6506,
      "OpenAIFunctionsAgentOutputParser": 6507,
      "generate_doc_string": 6508,
      "row_styles": 6509,
      "application_startup": 6510,
      "Sphinx": 6511,
      "overall_chain": 6512,
      "2011_000003": 6513,
      "TELNETCONSOLE_ENABLED": 6514,
      "celery_broker_url": 6515,
      "celery_result_backend": 6516,
      "ted_media_type": 6517,
      "llm_with_tools": 6518,
      "autoflush": 6519,
      "register_app_hooks": 6520,
      "parse_function_docstr": 6521,
      "ROBOTSTXT_OBEY": 6522,
      "send_training_report_task": 6523,
      "RunnableBranch": 6524,
      "vectore_store": 6525,
      "ARCHIVE_NAME": 6526,
      "y6SVtoSmtYWimhexwF7": 6527,
      "FindProductReviewTools": 6528,
      "[^'\\\">])+>\"": 6529,
      "UExnQ1I0ZHl": 6530,
      "GOOGLE_OAUTH_CLIENT_": 6531,
      "GOOGLE_CSE_ID": 6532,
      "\"<(?:\\\"[^\\\"]*": 6533,
      "before_first_request": 6534,
      "predict_polygon_from_points": 6535,
      "_compute_and_cache_image_embedding": 6536,
      "\\\"['\\\"]*|'[^']*'['\\\"]*|": 6537,
      "get_class_methods_docstrings": 6538,
      "handle_unsupported_media_type": 6539,
      "MINIMAL_DOUBLE_HEAD": 6540,
      "MIN_SIZE_RATIO": 6541,
      "CONCURRENT_REQUESTS_PER_DOMAIN": 6542,
      "EscapableQListWidget": 6543,
      "NSNXpNQ": 6544,
      "current_user_home_dir": 6545,
      "asynchronously": 6546,
      "CrossEntropyLoss": 6547,
      "UNSUPPORTED_MEDIA_TYPE": 6548,
      "PL_26vmg8W_AfJWy6SVtoSmtYWimhexwF7": 6549,
      "annotated_with_data": 6550,
      "multiple_selection_mode": 6551,
      "3ddMTht_IHyNSNXpNQ": 6552,
      "COOKIES_ENABLED": 6553,
      "UCRijo3ddMTht_IHyNSNXpNQ": 6554,
      "january_2023": 6555,
      "thefuckyourshitup_constant": 6556,
      "isShapeRestorable": 6557,
      "get_favorite_channels_latest_videos": 6558,
      "UExnQ1I0ZHlhUVJsc": 6559,
      "\"<(?:\\\"[^\\\"]*\\\"['\\\"]*|'[^']*'['\\\"]*|": 6560,
      "\"<(?:\\\"[^\\\"]*\\\"['\\\"]*|'[^']*'['\\\"]*|[^'\\\">])+>\"": 6561,
      "\"&": 6562,
      "#{:": 6563,
      "'\"": 6564,
      "(+": 6565,
      "([\"": 6566,
      ")\",": 6567,
      ")\")": 6568,
      ")}.": 6569,
      "*\",": 6570,
      "*\"],": 6571,
      "*/*": 6572,
      "+\",": 6573,
      ",*/*": 6574,
      "08": 6575,
      "0b": 6576,
      "14": 6577,
      "1b": 6578,
      "180": 6579,
      "2J": 6580,
      "2P": 6581,
      "2am": 6582,
      "3Q": 6583,
      "45": 6584,
      "4M": 6585,
      "4d": 6586,
      "57": 6587,
      "58": 6588,
      "59": 6589,
      "5B": 6590,
      "5N": 6591,
      "5c": 6592,
      "5m": 6593,
      "76": 6594,
      "7c": 6595,
      "7n": 6596,
      "7TE": 6597,
      "8G": 6598,
      "8LE": 6599,
      "9b": 6600,
      "9y": 6601,
      ":\\": 6602,
      ":].": 6603,
      "=>": 6604,
      ">'.": 6605,
      "AL": 6606,
      "AW": 6607,
      "AGE": 6608,
      "B2": 6609,
      "Be": 6610,
      "Bu": 6611,
      "BTT": 6612,
      "CQ": 6613,
      "CY": 6614,
      "Code": 6615,
      "Clo": 6616,
      "Col": 6617,
      "Count": 6618,
      "Cache": 6619,
      "CATION": 6620,
      "DB": 6621,
      "DJ": 6622,
      "DN": 6623,
      "Don": 6624,
      "DXs": 6625,
      "EL": 6626,
      "EL_": 6627,
      "EOS": 6628,
      "EED_": 6629,
      "FG": 6630,
      "Flo": 6631,
      "FLA": 6632,
      "FING": 6633,
      "FEED_": 6634,
      "GR": 6635,
      "GZ": 6636,
      "Ge": 6637,
      "Gm": 6638,
      "Gr": 6639,
      "Gar": 6640,
      "GtF": 6641,
      "Hp": 6642,
      "Hand": 6643,
      "Iy": 6644,
      "Iter": 6645,
      "IFI": 6646,
      "JJ": 6647,
      "JDN": 6648,
      "Kar": 6649,
      "KGQ": 6650,
      "Loc": 6651,
      "LAB": 6652,
      "MD": 6653,
      "Mk": 6654,
      "Mz": 6655,
      "Mar": 6656,
      "Marg": 6657,
      "Mapping": 6658,
      "MENT": 6659,
      "Na": 6660,
      "Nw": 6661,
      "Nz": 6662,
      "Nat": 6663,
      "Nel": 6664,
      "Native": 6665,
      "NEC": 6666,
      "OQ": 6667,
      "Ox": 6668,
      "Ori": 6669,
      "Ollama": 6670,
      "Pas": 6671,
      "PAD": 6672,
      "PRO": 6673,
      "PLE": 6674,
      "P_S": 6675,
      "Palm": 6676,
      "Qc": 6677,
      "QSize": 6678,
      "Q1d": 6679,
      "QCompleter": 6680,
      "RT": 6681,
      "Rc": 6682,
      "Rel": 6683,
      "RING": 6684,
      "RATION": 6685,
      "R2J": 6686,
      "Sa": 6687,
      "Si": 6688,
      "Sm": 6689,
      "So": 6690,
      "Sim": 6691,
      "Sign": 6692,
      "SEN": 6693,
      "SOS": 6694,
      "SK_": 6695,
      "TH": 6696,
      "Tw": 6697,
      "Tic": 6698,
      "TOR": 6699,
      "TAR": 6700,
      "THO": 6701,
      "Tags": 6702,
      "TBTT": 6703,
      "VS": 6704,
      "Vh": 6705,
      "Vm": 6706,
      "Vocab": 6707,
      "Wl": 6708,
      "WJJ": 6709,
      "XL": 6710,
      "XZ": 6711,
      "XNw": 6712,
      "Y4": 6713,
      "YG": 6714,
      "Yes": 6715,
      "ZB": 6716,
      "Z8LE": 6717,
      "[/": 6718,
      "]\")": 6719,
      "])),": 6720,
      "_un": 6721,
      "_title": 6722,
      "_flags": 6723,
      "_ST": 6724,
      "_models": 6725,
      "_error": 6726,
      "_shape_type": 6727,
      "_iterator": 6728,
      "_check": 6729,
      "_height": 6730,
      "_SEC": 6731,
      "_test": 6732,
      "_orientation": 6733,
      "_field": 6734,
      "_keys": 6735,
      "_vertex_fill_color": 6736,
      "_video_by": 6737,
      "_gemma": 6738,
      "_locations": 6739,
      "_fill_drawing": 6740,
      "_MODEL": 6741,
      "_region": 6742,
      "_hideBackround": 6743,
      "_not_": 6744,
      "_labelfile": 6745,
      "__py": 6746,
      "_ratio": 6747,
      "a3": 6748,
      "a8": 6749,
      "aQ": 6750,
      "av": 6751,
      "ay": 6752,
      "alay": 6753,
      "ama": 6754,
      "aver": 6755,
      "bic": 6756,
      "blob": 6757,
      "cing": 6758,
      "came": 6759,
      "cWl": 6760,
      "dom": 6761,
      "d_par": 6762,
      "duration": 6763,
      "e8": 6764,
      "ec": 6765,
      "ef": 6766,
      "ered": 6767,
      "eSchema": 6768,
      "eye": 6769,
      "fW": 6770,
      "four": 6771,
      "flip": 6772,
      "gue": 6773,
      "h4": 6774,
      "ited": 6775,
      "iated": 6776,
      "iede": 6777,
      "ilities": 6778,
      "jj": 6779,
      "jBC": 6780,
      "lp": 6781,
      "mr": 6782,
      "mat": 6783,
      "mor": 6784,
      "mime": 6785,
      "minst": 6786,
      "mallow": 6787,
      "n4": 6788,
      "na": 6789,
      "nd": 6790,
      "ner": 6791,
      "ndi": 6792,
      "ntext": 6793,
      "nub": 6794,
      "ndim": 6795,
      "nPolygons": 6796,
      "nDXs": 6797,
      "oce": 6798,
      "ogs": 6799,
      "od_": 6800,
      "pth": 6801,
      "pub": 6802,
      "pix": 6803,
      "published": 6804,
      "places": 6805,
      "pin_": 6806,
      "pick": 6807,
      "r3": 6808,
      "rd": 6809,
      "rm": 6810,
      "rs": 6811,
      "s_s": 6812,
      "sThis": 6813,
      "side": 6814,
      "sChain": 6815,
      "sMarg": 6816,
      "tate": 6817,
      "titanic": 6818,
      "uters": 6819,
      "u4M": 6820,
      "vance": 6821,
      "vids": 6822,
      "w1": 6823,
      "w2": 6824,
      "whether": 6825,
      "xhtml": 6826,
      "zvL": 6827,
      "{},": 6828,
      "}),": 6829,
      "}\"),": 6830,
      "}####": 6831,
      "}'),": 6832,
      "sece": 6833,
      "inf": 6834,
      "inem": 6835,
      "inant": 6836,
      "inates": 6837,
      "in_features": 6838,
      "incomplete": 6839,
      "increment": 6840,
      "staging": 6841,
      "atible": 6842,
      "rece": 6843,
      "rever": 6844,
      "des": 6845,
      "deno": 6846,
      "deeSchema": 6847,
      "orRe": 6848,
      "endeeSchema": 6849,
      "less": 6850,
      "lecture": 6851,
      "imread": 6852,
      "iminant": 6853,
      "tech": 6854,
      "lazy": 6855,
      "geometry": 6856,
      "arc": 6857,
      "around": 6858,
      "els": 6859,
      "utilities": 6860,
      "anity": 6861,
      "anscript": 6862,
      "analay": 6863,
      "fix": 6864,
      "fix_": 6865,
      "()[": 6866,
      "()).": 6867,
      "()[:": 6868,
      "apic": 6869,
      "thrott": 6870,
      "alt": 6871,
      "ort_labels": 6872,
      "ateOf": 6873,
      "ursor": 6874,
      "fromData": 6875,
      "ingRect": 6876,
      "div": 6877,
      "_call": 6878,
      "_coun": 6879,
      "_cursor": 6880,
      "below": 6881,
      "define": 6882,
      "visi": 6883,
      "pt1": 6884,
      "pt2": 6885,
      "pt350": 6886,
      "getLabelFile": 6887,
      "getFlags": 6888,
      "getattr": 6889,
      "get_playlists": 6890,
      "getCircle": 6891,
      "getRectFromLine": 6892,
      "getitem__": 6893,
      "toline": 6894,
      "to_json": 6895,
      "role": 6896,
      "rotate": 6897,
      "routers": 6898,
      "advance": 6899,
      "label_id": 6900,
      "labelMenu": 6901,
      "labelValidator": 6902,
      "label_columns": 6903,
      "ceed": 6904,
      "ce_ratio": 6905,
      "asgray": 6906,
      "\"\"\",": 6907,
      "ifTags": 6908,
      "trig": 6909,
      "shuff": 6910,
      "shmallow": 6911,
      "temp": 6912,
      "aped": 6913,
      "unsupported": 6914,
      "untrained_model": 6915,
      "vet_": 6916,
      "setListWidget": 6917,
      "setColor": 6918,
      "setPixmap": 6919,
      "setFocus": 6920,
      "setRender": 6921,
      "console": 6922,
      "image_to_": 6923,
      "ternal": 6924,
      "rica": 6925,
      "ains": 6926,
      "ones": 6927,
      "one_post": 6928,
      "emon": 6929,
      "emu4M": 6930,
      "exp": 6931,
      "exact": 6932,
      "video_file_path": 6933,
      "d_file": 6934,
      "d_by": 6935,
      "d_video_search": 6936,
      "texts": 6937,
      "textChanged": 6938,
      "textbox": 6939,
      "derSchema": 6940,
      "docker": 6941,
      "class_source": 6942,
      "class_src": 6943,
      "class_methods": 6944,
      "__next": 6945,
      "__getitem__": 6946,
      "model_parser": 6947,
      "=\"#{:": 6948,
      "=\"*\",": 6949,
      "isting": 6950,
      "isted": 6951,
      "istered": 6952,
      "htags": 6953,
      "ze_video": 6954,
      "\"]]": 6955,
      "\"]):": 6956,
      "near": 6957,
      "heel": 6958,
      "able_name": 6959,
      "proof": 6960,
      "proceed": 6961,
      "_sm": 6962,
      "_summary": 6963,
      "_slider": 6964,
      "_sanity": 6965,
      "_sort_labels": 6966,
      "parallel": 6967,
      "create_dataset": 6968,
      "upload_": 6969,
      "get_node": 6970,
      "get_channels": 6971,
      "get_train_": 6972,
      "get_random": 6973,
      "get_function_prompt_template": 6974,
      "get_default_config": 6975,
      "get_default_credentials_path": 6976,
      "loadFlags": 6977,
      "loadPixmap": 6978,
      "loadLabels": 6979,
      "channel_comments": 6980,
      "channel_file_path": 6981,
      "bound": 6982,
      "ogn": 6983,
      "_path_queue": 6984,
      "lated": 6985,
      "oreactor": 6986,
      "config_file": 6987,
      "Transcript": 6988,
      "very": 6989,
      "output_key": 6990,
      "add_comments": 6991,
      "addRect": 6992,
      "addRecent": 6993,
      "_to_playlist": 6994,
      "='%": 6995,
      "='',": 6996,
      "='%(": 6997,
      "urlsafe_": 6998,
      "actly": 6999,
      "actual": 7000,
      "timezone": 7001,
      "feed": 7002,
      "pathy": 7003,
      "descriptions_dir": 7004,
      "saved": 7005,
      "save_pro": 7006,
      "save_src": 7007,
      "saveFileDialog": 7008,
      "saveLabels": 7009,
      "ShapePoint": 7010,
      "ShapeEdit": 7011,
      "ListCalendar": 7012,
      "preview": 7013,
      "present": 7014,
      "wai": 7015,
      "functions_": 7016,
      "function_prompt": 7017,
      "PostBase": 7018,
      "Imputer": 7019,
      "_config_item": 7020,
      "like_date": 7021,
      "liked_by": 7022,
      "Stuff": 7023,
      "assoc": 7024,
      "etc": 7025,
      "defaultdict": 7026,
      "FileMenu": 7027,
      "Filesystem": 7028,
      "compute": 7029,
      "ived": 7030,
      "Choose": 7031,
      "']))": 7032,
      "']),": 7033,
      "DataSet": 7034,
      "create_image": 7035,
      "create_view": 7036,
      "create_event": 7037,
      "create_train_config": 7038,
      "create_MainWindow": 7039,
      "create_analyzed": 7040,
      "create_experiment_pipeline": 7041,
      "ToCenter": 7042,
      "ImageEn": 7043,
      "CreateComment": 7044,
      "result_count": 7045,
      "result_caption": 7046,
      "authors": 7047,
      "ERPR": 7048,
      "\".%": 7049,
      "Comment_": 7050,
      "comments_file_path": 7051,
      "Inst": 7052,
      "T_EN": 7053,
      "T_CONCURREN": 7054,
      "load_posts": 7055,
      "load_image_file": 7056,
      "load_sece": 7057,
      "ExVN": 7058,
      "ExifTags": 7059,
      "Existing": 7060,
      "Exactly": 7061,
      "secret_file": 7062,
      "_to_resize_image": 7063,
      "s_directory": 7064,
      "canClose": 7065,
      "canAdd": 7066,
      "method_": 7067,
      "translator": 7068,
      "_image_size": 7069,
      "_image_height": 7070,
      "queue_module": 7071,
      "queue_un": 7072,
      "maxlen": 7073,
      "####{": 7074,
      "currentText": 7075,
      "argv": 7076,
      "flags_new": 7077,
      "Throttle": 7078,
      "PIRATION": 7079,
      "draw_label": 7080,
      "draw_json": 7081,
      "pleImputer": 7082,
      "linen": 7083,
      "GetRepeatable": 7084,
      "STOR": 7085,
      ":///.": 7086,
      "moveTo": 7087,
      "new_src": 7088,
      "newAction": 7089,
      "process_file": 7090,
      "parsers": 7091,
      "ml2am": 7092,
      "editLabel": 7093,
      "ToolButton": 7094,
      "HTTP_CO": 7095,
      "video_description": 7096,
      "googleapic": 7097,
      "zoom_": 7098,
      "zoomLabel": 7099,
      "canvas_scale_factor": 7100,
      "add_post": 7101,
      "add_user": 7102,
      "add_likes": 7103,
      "add_bookmarks": 7104,
      "exist_tag": 7105,
      "exist_category": 7106,
      "updateFlags": 7107,
      "updateFileMenu": 7108,
      "removeRow": 7109,
      "who": 7110,
      "whose": 7111,
      "split_text": 7112,
      "index_edge": 7113,
      "ights": 7114,
      "save_location": 7115,
      "yourdom": 7116,
      "assert_labelfile": 7117,
      "generate_data": 7118,
      "generate_project": 7119,
      "generate_docstrings": 7120,
      "generate_password_hash": 7121,
      "from_chain_type": 7122,
      "from_texts": 7123,
      "rowCount": 7124,
      "find_most_": 7125,
      "Lock": 7126,
      "send_password_reset_email": 7127,
      "Likes": 7128,
      "2500": 7129,
      "ailable": 7130,
      "daemon": 7131,
      "ENV": 7132,
      "TextLoader": 7133,
      "resource_not_": 7134,
      "makePath": 7135,
      "=[\"*\"],": 7136,
      "_internal": 7137,
      "train_date": 7138,
      "delete_video": 7139,
      "delete_playlist_item": 7140,
      "deleted_shapes": 7141,
      "eventType": 7142,
      "subscription": 7143,
      "submit": 7144,
      "subscribers": 7145,
      "fillPath": 7146,
      "fillDrawing": 7147,
      "checkState": 7148,
      "check_password_hash": 7149,
      "bucke": 7150,
      "ioSelect": 7151,
      "ot8G": 7152,
      "\"))):": 7153,
      "command": 7154,
      "directory_iterator": 7155,
      "agent_result": 7156,
      "num_seconds": 7157,
      "colorama": 7158,
      "fsets": 7159,
      "handle_internal": 7160,
      "runs": 7161,
      "1500": 7162,
      "cioreactor": 7163,
      "offsetToCenter": 7164,
      "all_polygons": 7165,
      "'))}\")": 7166,
      "Query": 7167,
      "pydantic_settings": 7168,
      "ADER_": 7169,
      "filter_by": 7170,
      "NORE_": 7171,
      "quence": 7172,
      "registered": 7173,
      "---------": 7174,
      "Python3": 7175,
      "OSGZ": 7176,
      "has_mask_input": 7177,
      "hashtags": 7178,
      "process_function": 7179,
      "process_response": 7180,
      "process_start_requests": 7181,
      "sqlalchemy_": 7182,
      "llm_chain": 7183,
      "ClassDocStringWriter": 7184,
      "recall": 7185,
      "recogn": 7186,
      "reviewed": 7187,
      "Events": 7188,
      "EventTime": 7189,
      "EventResource": 7190,
      "calcul": 7191,
      "lbl_pil": 7192,
      "selectShapePoint": 7193,
      "ontentsMarg": 7194,
      "downloads": 7195,
      "otherwise": 7196,
      "extract_links": 7197,
      "providers": 7198,
      "fit_pipeline": 7199,
      "is_rate_lim": 7200,
      "is_av": 7201,
      "max_length": 7202,
      "Documentation": 7203,
      "DocumentsChain": 7204,
      "_and_width": 7205,
      "ed_models": 7206,
      "ChatGoogle": 7207,
      "FunctionTransformer": 7208,
      "FunctionDocStringWriter": 7209,
      "MEE": 7210,
      "METHO": 7211,
      "QUARE": 7212,
      "reset_config": 7213,
      "resetFlags": 7214,
      "showing": 7215,
      "showMessage": 7216,
      "show_text": 7217,
      "showAll": 7218,
      "MOVE": 7219,
      "_from_mask": 7220,
      "batchUpdate": 7221,
      "segmentation": 7222,
      "toggleActions": 7223,
      "toggleAll": 7224,
      "toggleKeep": 7225,
      "TION_ST": 7226,
      "redis_config": 7227,
      "scrollTo": 7228,
      "undoShapeEdit": 7229,
      "functions_src": 7230,
      "word_frequ": 7231,
      "Agents": 7232,
      "AgentNel": 7233,
      "clear_shapes": 7234,
      "internet": 7235,
      "model_index": 7236,
      "GES_": 7237,
      "GET_CONCURREN": 7238,
      "atureError": 7239,
      "ColorDialog": 7240,
      "decode_response": 7241,
      "post_i": 7242,
      "validateLabel": 7243,
      "validate_config_item": 7244,
      "send_account_activation_email": 7245,
      "NDIy": 7246,
      "oauth2": 7247,
      "out_file_b": 7248,
      "lyleokoth": 7249,
      "activate": 7250,
      "validation_output": 7251,
      "validation_test": 7252,
      "IDTH": 7253,
      "cache__": 7254,
      "text_display": 7255,
      "vertexSelected": 7256,
      "ER_IM": 7257,
      "owner": 7258,
      "keep_prev_scale": 7259,
      "238": 7260,
      "Blueprint": 7261,
      "Contains": 7262,
      "element_id": 7263,
      "insert_playlist": 7264,
      "Key_Up": 7265,
      "Key_Down": 7266,
      "ButtonStyle": 7267,
      "CONNEC": 7268,
      "fields": 7269,
      "INTER_IM": 7270,
      "refresh_token": 7271,
      "Copyright": 7272,
      "out_ann": 7273,
      "Asian": 7274,
      "Nearest": 7275,
      "frame": 7276,
      "PrevMode": 7277,
      "T3BlbkFJzvL": 7278,
      "Useful": 7279,
      "UseNative": 7280,
      "crewai": 7281,
      "best_model": 7282,
      "best_model_names": 7283,
      "GetUsers": 7284,
      "WhatsThis": 7285,
      "ValidationTemplate": 7286,
      "_with_directory": 7287,
      "TrainedModel": 7288,
      "NOT_ALLOW": 7289,
      "QColorDialog": 7290,
      "csv": 7291,
      "fails": 7292,
      "global": 7293,
      "display_name": 7294,
      "asctime2": 7295,
      "polygons_to_mask": 7296,
      "OPENAI_MODEL": 7297,
      "EXPOR": 7298,
      "EXPIRATION": 7299,
      "PressEvent": 7300,
      "test_img4": 7301,
      "selectAiModelLabel": 7302,
      "0VD": 7303,
      "0VExVN": 7304,
      "aws_s": 7305,
      "nua": 7306,
      "addItems": 7307,
      "existing_comments": 7308,
      "paintCanvas": 7309,
      "distancetoline": 7310,
      "autodiscover": 7311,
      "SQLALCHEMY_TRAC": 7312,
      ")}'": 7313,
      "AsyncioSelect": 7314,
      "CODING": 7315,
      "_force_ratio": 7316,
      "buttons": 7317,
      "callbacks": 7318,
      "push": 7319,
      "zipfile": 7320,
      "locally": 7321,
      "_create_slider": 7322,
      "YouTubeChannelSearch": 7323,
      "SlidesModelspider": 7324,
      "HTTPCACHE_ENABLED": 7325,
      "HTTPCACHE_IG": 7326,
      "HTTPCACHE_DI": 7327,
      "HTTPCACHE_STOR": 7328,
      "HTTPCACHE_EXPIRATION": 7329,
      "AUTOTHROTTLE_DEBUG": 7330,
      "AUTOTHROTTLE_ENABLED": 7331,
      "AUTOTHROTTLE_START_": 7332,
      "AUTOTHROTTLE_MAX_": 7333,
      "AUTOTHROTTLE_TAR": 7334,
      "POSTGRES_USER": 7335,
      "POSTGRES_HO": 7336,
      "POSTGRES_PORT": 7337,
      "POSTGRES_PASSWORD": 7338,
      "POSTGRES_DB": 7339,
      "RG5m": 7340,
      "my_checkpoint": 7341,
      "zJCQ": 7342,
      "youtube_audio": 7343,
      "edges": 7344,
      "default_flags": 7345,
      "default_labelfile": 7346,
      "numbers": 7347,
      "containsPoint": 7348,
      "Autom": 7349,
      "y3GtF": 7350,
      "_compute_scale": 7351,
      "DOWNLOADER_": 7352,
      "CURSOR_MOVE": 7353,
      "_polygon_from_mask": 7354,
      "hideAll": 7355,
      "cessed_file": 7356,
      "scriminant": 7357,
      "scraped": 7358,
      "list_post_views": 7359,
      "analyzed_video": 7360,
      "ProductReviewTask": 7361,
      "ProductReviewAgents": 7362,
      "IMAGES_": 7363,
      "SVC": 7364,
      "cyan": 7365,
      "centralWidget": 7366,
      "twisted": 7367,
      "}\">●</": 7368,
      "changes": 7369,
      "get_class_source": 7370,
      "modules_path_queue": 7371,
      "initial_state": 7372,
      "MODIFI": 7373,
      "funcName": 7374,
      "SPIDER_MIDDLEWARES": 7375,
      "QVKGQ": 7376,
      "_highlightMode": 7377,
      "generic": 7378,
      "plotlib": 7379,
      "t_val": 7380,
      "exif_orientation": 7381,
      "labelme_shapes_to_label": 7382,
      "labelme_on_docker": 7383,
      "generate_class_docstrings": 7384,
      "handle_method_": 7385,
      "handle_resource_not_": 7386,
      "SlidesmodelSpiderMiddleware": 7387,
      "--------------------------------": 7388,
      "target_len": 7389,
      "LeftButton": 7390,
      "LeftClick": 7391,
      "AutoThrottle": 7392,
      "relevance": 7393,
      "redis_port": 7394,
      "Africa": 7395,
      "D_NOT_ALLOW": 7396,
      "HyDs": 7397,
      "batched_point_labels": 7398,
      "batched_images": 7399,
      "batched_point_coords": 7400,
      "latencies": 7401,
      "fileSearchChanged": 7402,
      "setContentsMarg": 7403,
      "min_i": 7404,
      "UExfMjZ2bWc4V19BY0VFbF9CbzJBaHppUy05M3I2YjhidS41": 7405,
      "DEFAULT": 7406,
      "QWidgetAction": 7407,
      "RightButton": 7408,
      "XXX": 7409,
      "cases": 7410,
      "in_file_b": 7411,
      "stats": 7412,
      "developer": 7413,
      "setCurrentRow": 7414,
      "aggrovet_": 7415,
      "default_config_file": 7416,
      "findItemByShape": 7417,
      "ED_REAC": 7418,
      "functions_source_code_queue": 7419,
      "FIT_WIDTH": 7420,
      "CREATED": 7421,
      "Success": 7422,
      "TWIST": 7423,
      "mapping_list": 7424,
      "nQ2P": 7425,
      "ratings": 7426,
      "research_analyst_": 7427,
      "compatible": 7428,
      "features_covered": 7429,
      "current_filename": 7430,
      "embedings": 7431,
      "draw_actions": 7432,
      "add_video_to_playlist": 7433,
      "generate_function_docstrings": 7434,
      "region_code": 7435,
      "has_liked": 7436,
      "structures": 7437,
      "segment_str_gemma": 7438,
      "asyncioreactor": 7439,
      "REQUEST_FING": 7440,
      "plans": 7441,
      "algorithm": 7442,
      "published_at": 7443,
      "TelnetConsole": 7444,
      "SequentialChain": 7445,
      "ExpiredSign": 7446,
      "2NRc": 7447,
      "Covent": 7448,
      "DontUseNative": 7449,
      "K_MODIFI": 7450,
      "MatchExactly": 7451,
      "TunedModel": 7452,
      "Topics": 7453,
      "onNewValue": 7454,
      "onNewBrightnessContrast": 7455,
      "get_playlist_id": 7456,
      "file_extension": 7457,
      "not_allowed": 7458,
      "mousePressEvent": 7459,
      "UserAgentMiddleware": 7460,
      "UserAgentProvider": 7461,
      "canvas_width_new": 7462,
      "canvas_width_old": 7463,
      "list_user_likes": 7464,
      "send_email_local": 7465,
      "send_email_aws_ses": 7466,
      "successfully": 7467,
      "dragging": 7468,
      "COLORS": 7469,
      "COLORMAP": 7470,
      "(\",\")]": 7471,
      "START_URLS_": 7472,
      "270": 7473,
      "AttendeeSchema": 7474,
      "EmailMessage": 7475,
      "RkJDN": 7476,
      "Trip": 7477,
      "Westminst": 7478,
      "tmp_dir": 7479,
      "wraps": 7480,
      "}```\"\"\"": 7481,
      "label_colors": 7482,
      "###\")": 7483,
      "request_is_rate_lim": 7484,
      "open_ai_api_key": 7485,
      "docstring_generator": 7486,
      "find_my_channel": 7487,
      "find_product_reviews": 7488,
      "Calculator": 7489,
      "QAbstractItemView": 7490,
      "automatically": 7491,
      "token_hex": 7492,
      "similarly": 7493,
      "ScrollAreaPreview": 7494,
      "visit_FunctionDef": 7495,
      "processed_functions_": 7496,
      "ReminderSchema": 7497,
      "1MzJCQ": 7498,
      "Faker": 7499,
      "TZ5N": 7500,
      "VOC": 7501,
      "_update_shape_color": 7502,
      "_server_error": 7503,
      "bCy3GtF": 7504,
      "escape": 7505,
      "natsort": 7506,
      "pha": 7507,
      "randint": 7508,
      "stream_handler": 7509,
      "remLabels": 7510,
      "reasonable": 7511,
      "telnet": 7512,
      "setPen": 7513,
      "perf_coun": 7514,
      "ContextMenu": 7515,
      "popular_video_by": 7516,
      "executable": 7517,
      "label_list_item": 7518,
      "email_sender": 7519,
      "dynamic": 7520,
      "coordinates": 7521,
      "unique_label_values": 7522,
      "UExfMjZ2bWc4V19BZkQ1d": 7523,
      "accuracy_score": 7524,
      "missing_locations": 7525,
      "secondary": 7526,
      "intersectionPoint": 7527,
      "ItineraryTemplate": 7528,
      "StandardItemModel": 7529,
      "DuplicatesPipeline": 7530,
      "apply_exif_orientation": 7531,
      "HTMLDelegate": 7532,
      "teacher_force_ratio": 7533,
      "UExnQ1I0ZHlhUVJscTBTT": 7534,
      ")}.{": 7535,
      ",*/*;": 7536,
      "7nT3BlbkFJzvL": 7537,
      "9yUy": 7538,
      "CacheStorage": 7539,
      "CATIONS": 7540,
      "DJot8G": 7541,
      "EL_COLORMAP": 7542,
      "FG7TE": 7543,
      "FLASK_": 7544,
      "FEED_EXPOR": 7545,
      "GmD": 7546,
      "Garden": 7547,
      "HpOQ": 7548,
      "HandCursor": 7549,
      "Karpathy": 7550,
      "LABEL_COLORMAP": 7551,
      "MappingTemplate": 7552,
      "MENTATION": 7553,
      "Natural": 7554,
      "Oxford": 7555,
      "PLEMENTATION": 7556,
      "P_SQUARE": 7557,
      "R2J0VExVN": 7558,
      "SimpleImputer": 7559,
      "Two": 7560,
      "VhFG7TE": 7561,
      "VmQVKGQ": 7562,
      "Vocabulary": 7563,
      "WJJR2J0VExVN": 7564,
      "XZi": 7565,
      "XNwRG5m": 7566,
      "Z8LE7nT3BlbkFJzvL": 7567,
      "_check_image_height": 7568,
      "_SECS": 7569,
      "__pycache__": 7570,
      "average": 7571,
      "bicycle": 7572,
      "blob_loaders": 7573,
      "camera": 7574,
      "cWlOSGZ": 7575,
      "guess": 7576,
      "iedelight": 7577,
      "jBCNDIy": 7578,
      "matplotlib": 7579,
      "mimeData": 7580,
      "ndicated": 7581,
      "nDXsVhFG7TE": 7582,
      "ocean": 7583,
      "pin_memory": 7584,
      "pickle": 7585,
      "received": 7586,
      "reversed": 7587,
      "denoted": 7588,
      "orReactor": 7589,
      "techiedelight": 7590,
      "analayze_video": 7591,
      "fix_missing_locations": 7592,
      "throttling": 7593,
      "ateOffsets": 7594,
      "visible": 7595,
      "getCircleRectFromLine": 7596,
      "advanced_video_search": 7597,
      "shuffle": 7598,
      "setRenderHint": 7599,
      "image_to_draw": 7600,
      "class_source_code_queue": 7601,
      "__next__": 7602,
      "get_node_source": 7603,
      "get_train_test_data": 7604,
      "get_random_user": 7605,
      "boundingRect": 7606,
      "addRecentFile": 7607,
      "urlsafe_b64encode": 7608,
      "save_processed_file": 7609,
      "ListCalendarEvents": 7610,
      "StuffDocumentsChain": 7611,
      "associated": 7612,
      "FilesystemCacheStorage": 7613,
      "compute_polygon_from_mask": 7614,
      "create_MainWindow_with_directory": 7615,
      "create_analyzed_comments_table": 7616,
      "ImageEnhance": 7617,
      "ERPRINTER_IM": 7618,
      "T_ENCODING": 7619,
      "load_secets": 7620,
      "canCloseShape": 7621,
      "canAddPoint": 7622,
      "queue_modules": 7623,
      "queue_unprocessed_functions_": 7624,
      "draw_label_png": 7625,
      "GetRepeatableActivity": 7626,
      ":///./": 7627,
      "ml2am9yUy": 7628,
      "HTTP_CODES": 7629,
      "googleapiclient": 7630,
      "removeRows": 7631,
      "yourdomain": 7632,
      "assert_labelfile_sanity": 7633,
      "generate_project_docstrings": 7634,
      "find_most_popular_video_by": 7635,
      "delete_video_playlist": 7636,
      "bucket_val": 7637,
      "handle_internal_server_error": 7638,
      "NORE_HTTP_CODES": 7639,
      "EventTimeSchema": 7640,
      "calculateOffsets": 7641,
      "is_available": 7642,
      "METHOD_NOT_ALLOW": 7643,
      "show_text_field": 7644,
      "toggleKeepPrevMode": 7645,
      "TION_STRING": 7646,
      "word_frequencies": 7647,
      "AgentNelly": 7648,
      "GET_CONCURRENCY": 7649,
      "decode_responses": 7650,
      "CONNECTION_STRING": 7651,
      "out_ann_file": 7652,
      "Asianometry": 7653,
      "aws_s3": 7654,
      "autodiscover_tasks": 7655,
      "SQLALCHEMY_TRACK_MODIFI": 7656,
      "AsyncioSelectorReactor": 7657,
      "HTTPCACHE_IGNORE_HTTP_CODES": 7658,
      "HTTPCACHE_DIR": 7659,
      "HTTPCACHE_STORAGE": 7660,
      "HTTPCACHE_EXPIRATION_SECS": 7661,
      "AUTOTHROTTLE_START_DELAY": 7662,
      "AUTOTHROTTLE_MAX_DELAY": 7663,
      "AUTOTHROTTLE_TARGET_CONCURRENCY": 7664,
      "POSTGRES_HOST": 7665,
      "default_labelfile_name": 7666,
      "_compute_scale_to_resize_image": 7667,
      "DOWNLOADER_MIDDLEWARES": 7668,
      "ProductReviewTasks": 7669,
      "handle_method_not_allowed": 7670,
      "handle_resource_not_found": 7671,
      "HyDsDJot8G": 7672,
      "setContentsMargins": 7673,
      "aggrovet_locations": 7674,
      "ED_REACTOR": 7675,
      "TWISTED_REACTOR": 7676,
      "nQ2PGmD": 7677,
      "research_analyst_agent": 7678,
      "REQUEST_FINGERPRINTER_IM": 7679,
      "ExpiredSignatureError": 7680,
      "2NRcXNwRG5m": 7681,
      "DontUseNativeDialog": 7682,
      "START_URLS_PATH": 7683,
      "RkJDN0VD": 7684,
      "Westminster": 7685,
      "request_is_rate_limited": 7686,
      "1MzJCQjBCNDIy": 7687,
      "TZ5N2NRcXNwRG5m": 7688,
      "bCy3GtFVmQVKGQ": 7689,
      "perf_counter": 7690,
      "UExfMjZ2bWc4V19BZkQ1dHpOQ": 7691,
      "UExnQ1I0ZHlhUVJscTBTTTZ5N2NRcXNwRG5m": 7692,
      "FLASK_ENV": 7693,
      "FEED_EXPORT_ENCODING": 7694,
      "WJJR2J0VExVNml2am9yUy": 7695,
      "Z8LE7nT3BlbkFJzvLHyDsDJot8G": 7696,
      "_check_image_height_and_width": 7697,
      "cWlOSGZXZi": 7698,
      "queue_unprocessed_functions_methods": 7699,
      "find_most_popular_video_by_region": 7700,
      "METHOD_NOT_ALLOWED": 7701,
      "SQLALCHEMY_TRACK_MODIFICATIONS": 7702,
      "REQUEST_FINGERPRINTER_IMPLEMENTATION": 7703,
      "1MzJCQjBCNDIyRkJDN0VD": 7704,
      "bCy3GtFVmQVKGQZ8LE7nT3BlbkFJzvLHyDsDJot8G": 7705,
      "UExfMjZ2bWc4V19BZkQ1dHpOQWJJR2J0VExVNml2am9yUy": 7706,
      "UExnQ1I0ZHlhUVJscTBTTTZ5N2NRcXNwRG5mcWlOSGZXZi": 7707,
      "bCy3GtFVmQVKGQZ8LE7nT3BlbkFJzvLHyDsDJot8GnQ2PGmD": 7708,
      "\"}": 7709,
      "\"',": 7710,
      "%.": 7711,
      "'%": 7712,
      "'@": 7713,
      "'\\": 7714,
      "'>●</": 7715,
      "({})\".": 7716,
      ")\"),": 7717,
      ")],": 7718,
      ")=%": 7719,
      "+:": 7720,
      ",)": 7721,
      ",),": 7722,
      ",!=": 7723,
      "-\\": 7724,
      "-{": 7725,
      ".*": 7726,
      "./": 7727,
      "0M": 7728,
      "0O": 7729,
      "0e": 7730,
      "0v": 7731,
      "0Nk": 7732,
      "18": 7733,
      "1B": 7734,
      "1C": 7735,
      "1J": 7736,
      "1RE": 7737,
      "21": 7738,
      "28": 7739,
      "2E": 7740,
      "2R": 7741,
      "2UP": 7742,
      "2ah": 7743,
      "36": 7744,
      "39": 7745,
      "3D": 7746,
      "3N": 7747,
      "3e": 7748,
      "3OT": 7749,
      "319": 7750,
      "49": 7751,
      "4c": 7752,
      "4e": 7753,
      "4j": 7754,
      "4o": 7755,
      "4AB": 7756,
      "4b8": 7757,
      "5D": 7758,
      "5G": 7759,
      "5X": 7760,
      "5f": 7761,
      "5g": 7762,
      "5i": 7763,
      "5tz": 7764,
      "5WV": 7765,
      "5MD": 7766,
      "63": 7767,
      "6b": 7768,
      "6ic": 7769,
      "6Lo": 7770,
      "6iv": 7771,
      "6kw": 7772,
      "637": 7773,
      "7A": 7774,
      "7J": 7775,
      "7d": 7776,
      "7q": 7777,
      "7x": 7778,
      "7ER": 7779,
      "7IE": 7780,
      "8d": 7781,
      "8x": 7782,
      "8lu": 7783,
      "8RF": 7784,
      "863": 7785,
      "91": 7786,
      "94": 7787,
      "9J": 7788,
      "9f": 7789,
      "9IA": 7790,
      ":/": 7791,
      ":%(": 7792,
      "=\"\"\"": 7793,
      "=\"\",": 7794,
      "><": 7795,
      ">\"])": 7796,
      "></": 7797,
      "?')": 7798,
      "@{": 7799,
      "Age": 7800,
      "Ano": 7801,
      "Ant": 7802,
      "Arc": 7803,
      "A15": 7804,
      "ANS": 7805,
      "Abstract": 7806,
      "ANC": 7807,
      "AXs": 7808,
      "BA": 7809,
      "BM": 7810,
      "Bh": 7811,
      "Bion": 7812,
      "Blo": 7813,
      "Bus": 7814,
      "Buff": 7815,
      "Buck": 7816,
      "Brit": 7817,
      "CG": 7818,
      "CL": 7819,
      "CM": 7820,
      "CP": 7821,
      "CV": 7822,
      "CW": 7823,
      "Ct": 7824,
      "Cz": 7825,
      "Crom": 7826,
      "Cer": 7827,
      "Cab": 7828,
      "Caption": 7829,
      "Custom": 7830,
      "Cinem": 7831,
      "Dl": 7832,
      "Dq": 7833,
      "Dol": 7834,
      "Done": 7835,
      "Dog": 7836,
      "DER": 7837,
      "Dot": 7838,
      "Dense": 7839,
      "DAR": 7840,
      "Day": 7841,
      "Djj": 7842,
      "D5tz": 7843,
      "Elo": 7844,
      "Eno": 7845,
      "Emb": 7846,
      "Element": 7847,
      "EMU": 7848,
      "EMz": 7849,
      "E0Nk": 7850,
      "FF": 7851,
      "FT": 7852,
      "Ful": 7853,
      "Fast": 7854,
      "Flow": 7855,
      "Fare": 7856,
      "Fai": 7857,
      "Fake": 7858,
      "FLL": 7859,
      "Flip": 7860,
      "Face": 7861,
      "Flatten": 7862,
      "Final": 7863,
      "GS": 7864,
      "Gd": 7865,
      "Go": 7866,
      "Gre": 7867,
      "Give": 7868,
      "Glob": 7869,
      "GNE": 7870,
      "Grid": 7871,
      "HK": 7872,
      "Hot": 7873,
      "Hill": 7874,
      "Hide": 7875,
      "HDR": 7876,
      "Hrd": 7877,
      "Ia": 7878,
      "Ip": 7879,
      "Iz": 7880,
      "Izy": 7881,
      "JY": 7882,
      "Jz": 7883,
      "Jam": 7884,
      "Kg": 7885,
      "Ker": 7886,
      "Kpd": 7887,
      "KNeighbors": 7888,
      "KiP": 7889,
      "LM": 7890,
      "Lim": 7891,
      "LER": 7892,
      "LYG": 7893,
      "L4o": 7894,
      "LKiP": 7895,
      "Mg": 7896,
      "Mem": 7897,
      "Mult": 7898,
      "Mag": 7899,
      "Mall": 7900,
      "Mac": 7901,
      "Mus": 7902,
      "Mater": 7903,
      "MHK": 7904,
      "N0": 7905,
      "NB": 7906,
      "Night": 7907,
      "NEY": 7908,
      "N8x": 7909,
      "One": 7910,
      "Off": 7911,
      "ODl": 7912,
      "OLER": 7913,
      "PT": 7914,
      "Per": 7915,
      "Pri": 7916,
      "Pclass": 7917,
      "Paste": 7918,
      "PClassifier": 7919,
      "PUB": 7920,
      "PPRO": 7921,
      "Qv": 7922,
      "Qy": 7923,
      "QText": 7924,
      "QRect": 7925,
      "QDA": 7926,
      "QScrollArea": 7927,
      "QToolButton": 7928,
      "RU": 7929,
      "Ra": 7930,
      "Rj": 7931,
      "Ru": 7932,
      "Rate": 7933,
      "Rjo": 7934,
      "Range": 7935,
      "Rational": 7936,
      "Raw": 7937,
      "R4AaABAg": 7938,
      "SH": 7939,
      "SU": 7940,
      "Sk": 7941,
      "Sv": 7942,
      "Sen": 7943,
      "Ste": 7944,
      "Sex": 7945,
      "Sup": 7946,
      "Smo": 7947,
      "Stop": 7948,
      "Sub": 7949,
      "Some": 7950,
      "Side": 7951,
      "Sqd": 7952,
      "SAL": 7953,
      "TI": 7954,
      "TV": 7955,
      "Ter": 7956,
      "TDe": 7957,
      "TLU": 7958,
      "T7c": 7959,
      "TfW": 7960,
      "US": 7961,
      "Umar": 7962,
      "USE_": 7963,
      "URE_": 7964,
      "U3Q": 7965,
      "U5MD": 7966,
      "UFF": 7967,
      "VG": 7968,
      "WAR": 7969,
      "Wous": 7970,
      "Wr6": 7971,
      "Wheel": 7972,
      "W1C": 7973,
      "XD": 7974,
      "Xx": 7975,
      "X11": 7976,
      "X5g": 7977,
      "Y5": 7978,
      "Yer": 7979,
      "ZEN": 7980,
      "ZY4": 7981,
      "Z6Lo": 7982,
      "ZCz": 7983,
      "ZJY": 7984,
      "[(": 7985,
      "[@": 7986,
      "[])": 7987,
      "]):": 7988,
      "]['": 7989,
      "]])": 7990,
      "_2": 7991,
      "_a": 7992,
      "_g": 7993,
      "_im": 7994,
      "_from": 7995,
      "_int": 7996,
      "_get": 7997,
      "_is": 7998,
      "_ex": 7999,
      "_load": 8000,
      "_add": 8001,
      "_points": 8002,
      "_end": 8003,
      "_location": 8004,
      "_index": 8005,
      "_resource": 8006,
      "_over": 8007,
      "_arr": 8008,
      "_user_": 8009,
      "_kwargs": 8010,
      "_review": 8011,
      "_api": 8012,
      "_assistant": 8013,
      "_embeddings": 8014,
      "_handlers": 8015,
      "_train_results": 8016,
      "_function_code_queue": 8017,
      "_quote": 8018,
      "_root": 8019,
      "_events": 8020,
      "_dialog": 8021,
      "_sentence": 8022,
      "_We": 8023,
      "_screenshot": 8024,
      "_scratchpad": 8025,
      "_01": 8026,
      "_ln": 8027,
      "_resize_image": 8028,
      "_hours": 8029,
      "_V3": 8030,
      "_video_segments": 8031,
      "_daily_playlist": 8032,
      "_all_polygons": 8033,
      "_has_mask_input": 8034,
      "_4b8": 8035,
      "_Xx": 8036,
      "`(": 8037,
      "a2": 8038,
      "a4": 8039,
      "ade": 8040,
      "aid": 8041,
      "aData": 8042,
      "b1": 8043,
      "bg": 8044,
      "ben": 8045,
      "bul": 8046,
      "batter": 8047,
      "broker_url": 8048,
      "bIG": 8049,
      "clf": 8050,
      "clo": 8051,
      "cit": 8052,
      "cute": 8053,
      "cred": 8054,
      "coding": 8055,
      "cord": 8056,
      "custom": 8057,
      "cus": 8058,
      "cars": 8059,
      "capture": 8060,
      "c6kw": 8061,
      "dct": 8062,
      "dur": 8063,
      "dnn": 8064,
      "dVideo": 8065,
      "d_password": 8066,
      "dCrop": 8067,
      "d2ah": 8068,
      "ej": 8069,
      "eLo": 8070,
      "eFLL": 8071,
      "fk": 8072,
      "fm": 8073,
      "fon": 8074,
      "fur": 8075,
      "fsc": 8076,
      "fine": 8077,
      "fly": 8078,
      "fast": 8079,
      "fold": 8080,
      "flickr": 8081,
      "fBh": 8082,
      "gDrop": 8083,
      "gling": 8084,
      "green": 8085,
      "gmaps": 8086,
      "hor": 8087,
      "ham": 8088,
      "h64": 8089,
      "horizont": 8090,
      "hEMz": 8091,
      "h_4b8": 8092,
      "ii": 8093,
      "iat": 8094,
      "ibe": 8095,
      "isc": 8096,
      "iali": 8097,
      "iod": 8098,
      "iMessage": 8099,
      "iOS": 8100,
      "i30": 8101,
      "iClo": 8102,
      "j4": 8103,
      "jk": 8104,
      "jl": 8105,
      "jor": 8106,
      "j0O": 8107,
      "km": 8108,
      "kze": 8109,
      "knn": 8110,
      "k1RE": 8111,
      "kZCz": 8112,
      "lQ": 8113,
      "lr": 8114,
      "lw": 8115,
      "mss": 8116,
      "mis": 8117,
      "mand": 8118,
      "mig": 8119,
      "msk": 8120,
      "middle": 8121,
      "mble": 8122,
      "mlinks": 8123,
      "nk": 8124,
      "nor": 8125,
      "n_labels": 8126,
      "nables": 8127,
      "nlp": 8128,
      "ove": 8129,
      "ookies": 8130,
      "o_grad": 8131,
      "o4c": 8132,
      "oKg": 8133,
      "px": 8134,
      "p_data": 8135,
      "pics": 8136,
      "pho": 8137,
      "pQc": 8138,
      "pIzy": 8139,
      "q3": 8140,
      "ql": 8141,
      "qx": 8142,
      "qlist_widget": 8143,
      "qWous": 8144,
      "rj": 8145,
      "rv": 8146,
      "rator": 8147,
      "rust": 8148,
      "rsplit": 8149,
      "rfsc": 8150,
      "sbe": 8151,
      "sation": 8152,
      "sable": 8153,
      "sof": 8154,
      "sos": 8155,
      "s_published": 8156,
      "summar": 8157,
      "sOnly": 8158,
      "solut": 8159,
      "s7A": 8160,
      "sJz": 8161,
      "tal": 8162,
      "ts_": 8163,
      "tmax": 8164,
      "twe": 8165,
      "tree": 8166,
      "tIterator": 8167,
      "t_b": 8168,
      "tAc": 8169,
      "tpip": 8170,
      "tNC": 8171,
      "tRk": 8172,
      "ud": 8173,
      "ude": 8174,
      "ume": 8175,
      "usec": 8176,
      "u20": 8177,
      "ualize": 8178,
      "u8lu": 8179,
      "vd": 8180,
      "vable": 8181,
      "voice": 8182,
      "vPR": 8183,
      "vCL": 8184,
      "vT7c": 8185,
      "won": 8186,
      "wal": 8187,
      "would": 8188,
      "wNT": 8189,
      "wXL": 8190,
      "x0": 8191,
      "xU": 8192,
      "xpath": 8193,
      "x7ER": 8194,
      "xZJY": 8195,
      "yx": 8196,
      "yndicated": 8197,
      "yODl": 8198,
      "zW": 8199,
      "zME": 8200,
      "zhEMz": 8201,
      "}\\": 8202,
      "}]": 8203,
      "}</": 8204,
      "}/{": 8205,
      "}?')": 8206,
      "}@{": 8207,
      "~\"),": 8208,
      "~/.": 8209,
      "se_id": 8210,
      "seem": 8211,
      "seed_": 8212,
      "inver": 8213,
      "inText": 8214,
      "inBox": 8215,
      "invert": 8216,
      "inimum": 8217,
      "in_file_": 8218,
      "inner": 8219,
      "inp_data": 8220,
      "ong": 8221,
      "onent": 8222,
      "onChange": 8223,
      "onLoad": 8224,
      "stions": 8225,
      "storage": 8226,
      "at_s": 8227,
      "attribute": 8228,
      "rew": 8229,
      "revi": 8230,
      "research": 8231,
      "related": 8232,
      "dered": 8233,
      "ded_shapes": 8234,
      "orted": 8235,
      "enate": 8236,
      "enhance": 8237,
      "leave": 8238,
      "least": 8239,
      "imme": 8240,
      "imputer": 8241,
      "omsb": 8242,
      "teKer": 8243,
      "lainText": 8244,
      "gered": 8245,
      "ionIndex": 8246,
      "arget_": 8247,
      "arging": 8248,
      "arked": 8249,
      "ellipse": 8250,
      "life": 8251,
      "ligh": 8252,
      "ention": 8253,
      "ently": 8254,
      "entries": 8255,
      "anAll": 8256,
      "ctures": 8257,
      "alFile": 8258,
      "aller": 8259,
      "always": 8260,
      "along": 8261,
      "chip": 8262,
      "chmark": 8263,
      "chord": 8264,
      "chroma": 8265,
      "child": 8266,
      "charging": 8267,
      "ateMode": 8268,
      "ate_st": 8269,
      "uri": 8270,
      "ury": 8271,
      "urvi": 8272,
      "importDropped": 8273,
      "pow": 8274,
      "pople": 8275,
      "strateg": 8276,
      "straint": 8277,
      "erMem": 8278,
      "fromImage": 8279,
      "ingSen": 8280,
      "ingham": 8281,
      "dient": 8282,
      "lore": 8283,
      "loved": 8284,
      "_cors": 8285,
      "_csv": 8286,
      "_cross": 8287,
      "_capture": 8288,
      "_cse_id": 8289,
      "_crew": 8290,
      "definit": 8291,
      "via": 8292,
      "vis": 8293,
      "viou": 8294,
      "get_comment": 8295,
      "getenv": 8296,
      "getting": 8297,
      "get_credentials": 8298,
      "getGroup": 8299,
      "get_playlist_item": 8300,
      "get_comment_replies": 8301,
      "getExisting": 8302,
      "too": 8303,
      "toImage": 8304,
      "toPlaylist": 8305,
      "toler": 8306,
      "toLoc": 8307,
      "total": 8308,
      "roduction": 8309,
      "adless": 8310,
      "added_shapes": 8311,
      "labelItem": 8312,
      "labelSelected": 8313,
      "label_cols": 8314,
      "labelSelectionChanged": 8315,
      "labelDoubleClicked": 8316,
      "labelOr": 8317,
      "outdo": 8318,
      "outside": 8319,
      "asing": 8320,
      "as_bytes": 8321,
      "beach": 8322,
      "betwe": 8323,
      "beat_s": 8324,
      "traction": 8325,
      "trimme": 8326,
      "serted": 8327,
      "forget": 8328,
      "forcing": 8329,
      "_place": 8330,
      "_painter": 8331,
      "_palm": 8332,
      "_paid": 8333,
      "shor": 8334,
      "span": 8335,
      "spinner": 8336,
      "iting": 8337,
      "itError": 8338,
      "itude": 8339,
      "named_par": 8340,
      "ket": 8341,
      "fileSelectionChanged": 8342,
      "unix": 8343,
      "unwatch": 8344,
      "veSy": 8345,
      "olveSy": 8346,
      "return_source_": 8347,
      "setter": 8348,
      "setModel": 8349,
      "setData": 8350,
      "setOpen": 8351,
      "setSp": 8352,
      "set_content": 8353,
      "setnx": 8354,
      "setSelection": 8355,
      "setFilter": 8356,
      "setLast": 8357,
      "setAccept": 8358,
      "setValidator": 8359,
      "setSizeHint": 8360,
      "setShortcut": 8361,
      "setFitWidth": 8362,
      "setDra": 8363,
      "setFill": 8364,
      "setFitWindow": 8365,
      "setCompletion": 8366,
      "setRange": 8367,
      "list_calendar": 8368,
      "queries": 8369,
      "concat": 8370,
      "constraint": 8371,
      "post_schema": 8372,
      "postProcess": 8373,
      "posts_text": 8374,
      "imageFiles": 8375,
      "image_embeddings": 8376,
      "terfly": 8377,
      "scard": 8378,
      "scalar": 8379,
      "scores": 8380,
      "scann": 8381,
      "scanAll": 8382,
      "shape_response": 8383,
      "shapeSelectionChanged": 8384,
      "shape_keys": 8385,
      "resist": 8386,
      "isdir": 8387,
      "isChecked": 8388,
      "nothing": 8389,
      "no_save": 8390,
      "exclude": 8391,
      "(\"#": 8392,
      "(\"##": 8393,
      "(\"//": 8394,
      "(\".\")": 8395,
      "(\"=>": 8396,
      "(\"~\"),": 8397,
      "abuse": 8398,
      "videoD": 8399,
      "video_s": 8400,
      "video_type": 8401,
      "video_caption": 8402,
      "video_category": 8403,
      "video_categ": 8404,
      "video_paid": 8405,
      "d_request": 8406,
      "d_logger": 8407,
      "d_txt": 8408,
      "d_sentence": 8409,
      "textwrap": 8410,
      "textualize": 8411,
      "derChanged": 8412,
      "apple": 8413,
      "ases": 8414,
      "illow": 8415,
      "classsrc": 8416,
      "React": 8417,
      "Research": 8418,
      "Retry": 8419,
      "Release": 8420,
      "Repli": 8421,
      "Reply": 8422,
      "nts_": 8423,
      "__dict": 8424,
      "__tip": 8425,
      "item_ids": 8426,
      "item_snippet": 8427,
      "models_directory": 8428,
      "op_time": 8429,
      "\"\"\"```": 8430,
      "point1": 8431,
      "point2": 8432,
      "point_type": 8433,
      "point_label": 8434,
      "zedVideo": 8435,
      "_files_ignore": 8436,
      "\"]}')": 8437,
      "youtube_channels": 8438,
      "youtube_user": 8439,
      ")).": 8440,
      "ravel": 8441,
      "neighbors": 8442,
      "hed_password": 8443,
      "headless": 8444,
      "dust": 8445,
      "prog": 8446,
      "prop": 8447,
      "ipping": 8448,
      "_sample": 8449,
      "userId": 8450,
      "user_count": 8451,
      "parked": 8452,
      "params": 8453,
      "createShape": 8454,
      "createImage": 8455,
      "create_pro": 8456,
      "create_schema": 8457,
      "createSlide": 8458,
      "create_categ": 8459,
      "create_presentation": 8460,
      "magn": 8461,
      "get_ip": 8462,
      "get_channel": 8463,
      "get_labels": 8464,
      "get_features": 8465,
      "get_results": 8466,
      "get_version": 8467,
      "get_dataset": 8468,
      "get_install_requires": 8469,
      "get_tun": 8470,
      "get_long_description": 8471,
      "get_timestamps": 8472,
      "get_key_comment": 8473,
      "get_agrovets": 8474,
      "get_video_categ": 8475,
      "logo": 8476,
      "logy": 8477,
      "logical": 8478,
      "loggin": 8479,
      "logits": 8480,
      "print_src": 8481,
      "mod": 8482,
      "without": 8483,
      "withscores": 8484,
      "loading": 8485,
      "loadRecent": 8486,
      "img_id": 8487,
      "img_path": 8488,
      "boat": 8489,
      "both": 8490,
      "forms": 8491,
      "('~": 8492,
      "('.',": 8493,
      "ssional": 8494,
      "dateTime": 8495,
      "date_format": 8496,
      "date_time": 8497,
      "dates_published": 8498,
      "date_capture": 8499,
      "jsonl": 8500,
      "valueChanged": 8501,
      "versation": 8502,
      "##\\": 8503,
      "')[": 8504,
      "')}.": 8505,
      "output_names": 8506,
      "output_variables": 8507,
      "keyboard": 8508,
      "pyqt": 8509,
      "pyplot": 8510,
      "addLayout": 8511,
      "addMenu": 8512,
      "addHandler": 8513,
      "addRow": 8514,
      "openFile": 8515,
      "openDir": 8516,
      "Shield": 8517,
      "_to_comment": 8518,
      "_to_dataset": 8519,
      "_topics": 8520,
      "='')": 8521,
      "=''))": 8522,
      "url_pre": 8523,
      "url_root": 8524,
      "active": 8525,
      "fessional": 8526,
      "osave": 8527,
      "esTool": 8528,
      "save_to_": 8529,
      "save_credentials": 8530,
      "ListUser": 8531,
      "ListPlaylist": 8532,
      "ListChannel": 8533,
      "press": 8534,
      "preds": 8535,
      "previou": 8536,
      "wav": 8537,
      "functional": 8538,
      "function_node": 8539,
      "function_tree": 8540,
      "function_dcstr": 8541,
      "all_topics": 8542,
      "ality": 8543,
      "job": 8544,
      "agent_con": 8545,
      "agent_state": 8546,
      "Improved": 8547,
      "search_save": 8548,
      "gerId": 8549,
      "endly": 8550,
      "formatted_": 8551,
      "format_shape": 8552,
      "format_scratchpad": 8553,
      "perman": 8554,
      "perties": 8555,
      "period": 8556,
      "etree": 8557,
      "etCode": 8558,
      "response_data": 8559,
      "-----": 8560,
      "YouTubeSearch": 8561,
      "YouTubeVideo": 8562,
      "YouTubeScopes": 8563,
      "RELA": 8564,
      "RESE": 8565,
      "default_agent": 8566,
      "default_shape_color": 8567,
      "slide_id": 8568,
      "slide_link": 8569,
      "slide_links": 8570,
      "compose": 8571,
      "computing": 8572,
      "titled": 8573,
      "reading": 8574,
      "readlines": 8575,
      "read_csv": 8576,
      "emails": 8577,
      "Child": 8578,
      "'].": 8579,
      "']):": 8580,
      "']\")": 8581,
      "based": 8582,
      "base_language": 8583,
      "Database": 8584,
      "User_": 8585,
      "UserCommentsTool": 8586,
      "UserQuery": 8587,
      "train_st": 8588,
      "train_task": 8589,
      "trainedModel": 8590,
      "create_user": 8591,
      "create_new_": 8592,
      "create_numeric": 8593,
      "create_default_credentials_path": 8594,
      "create_daily_playlist": 8595,
      "create_shape_response": 8596,
      "ToEdge": 8597,
      "ToGlob": 8598,
      "topLeft": 8599,
      "ImageFiles": 8600,
      "ImageDraw": 8601,
      "ImageWith": 8602,
      "CreateEvent": 8603,
      "result_backend": 8604,
      "SearchSchema": 8605,
      "SearchCV": 8606,
      "\"../": 8607,
      "worker": 8608,
      "input_file": 8609,
      "message2": 8610,
      "viewed": 8611,
      "view_date": 8612,
      "features_description_template": 8613,
      "antError": 8614,
      "CommentTool": 8615,
      "CommentRepli": 8616,
      "module2": 8617,
      "module_source_queue": 8618,
      "Inception": 8619,
      "IntoPlaylist": 8620,
      "Inserted": 8621,
      "ast_tree": 8622,
      "T_DESCRIPTION": 8623,
      "T_SAL": 8624,
      "load_description": 8625,
      "load_timestamps": 8626,
      "Exit": 8627,
      "parse_comment": 8628,
      "_to_dict": 8629,
      "_to_queue": 8630,
      "env_path": 8631,
      "logging_format": 8632,
      "chedule": 8633,
      "focus": 8634,
      "AIqx": 8635,
      "playlist_utils": 8636,
      "playlist_video_id": 8637,
      "s_request": 8638,
      "s_txt": 8639,
      "s_expi": 8640,
      "init_token": 8641,
      "init_app": 8642,
      "st_travel": 8643,
      "cancel": 8644,
      "transport": 8645,
      "transition": 8646,
      "queueEvent": 8647,
      "max_size": 8648,
[...]
